<unk>	0
<s>	0
</s>	0
.	-3.20356
의	-3.70694
을	-3.79844
,	-3.88942
를	-4.12749
는	-4.25607
▁	-4.25629
에	-4.40236
가	-4.5042
이	-4.6234
은	-4.68264
▁수	-4.74007
▁있다	-4.97002
과	-5.21009
한	-5.34604
로	-5.43691
와	-5.44515
▁및	-5.53416
▁제	-5.54702
도	-5.56188
으로	-5.56857
에서	-5.57175
할	-5.63788
)	-5.64875
고	-5.74106
(	-5.76522
▁이	-5.84846
하는	-5.85508
▁상기	-5.88132
인	-5.94981
▁있는	-5.96985
다	-6.09778
▁그	-6.10287
1	-6.14181
▁1	-6.18711
일	-6.21658
▁대한	-6.21821
2	-6.29169
▁2	-6.372
지	-6.37418
하고	-6.37616
?	-6.37918
이다	-6.49304
된	-6.50063
년	-6.51361
▁본	-6.53501
▁등	-6.60633
▁또는	-6.61375
될	-6.64456
▁한	-6.64458
기	-6.65734
▁위해	-6.66405
▁위한	-6.66659
▁있습니다	-6.67246
▁3	-6.67385
'	-6.68368
▁것으로	-6.7173
▁한다	-6.72535
해	-6.72761
하게	-6.73776
▁경우	-6.74951
만	-6.75525
▁더	-6.77962
▁중	-6.78151
"	-6.78358
·	-6.79498
▁'	-6.79719
▁것이다	-6.82733
했다	-6.82922
▁따라	-6.8344
적인	-6.83593
나	-6.87714
-	-6.87793
게	-6.88641
▁"	-6.88851
▁통해	-6.89005
▁다른	-6.9127
하여	-6.93747
적	-6.95275
부	-6.9769
▁>	-6.98512
▁것을	-6.98552
▁AAA	-6.99452
하기	-7.04236
한다	-7.05006
되는	-7.05118
▁때	-7.05542
▁장치	-7.0572
▁4	-7.06081
성	-7.06239
자	-7.10678
입니다	-7.10806
▁의해	-7.11948
▁우리	-7.11976
서	-7.12049
월	-7.12153
▁5	-7.12761
▁할	-7.13099
▁것	-7.14613
하였다	-7.15294
면	-7.15892
▁하는	-7.16046
▁같은	-7.18133
히	-7.20239
▁대해	-7.21638
▁것이	-7.25033
들이	-7.25056
▁후	-7.26337
▁전	-7.27685
▁또한	-7.27709
시	-7.29005
▁관한	-7.31425
▁두	-7.32451
용	-7.34514
하지	-7.35782
▁10	-7.36488
대	-7.38824
▁함께	-7.40648
합니다	-7.40704
까지	-7.41453
▁가장	-7.42388
형	-7.42635
▁다양한	-7.43604
▁이러	-7.43844
▁일	-7.4408
▁각	-7.45029
된다	-7.45096
개	-7.45257
▁결과	-7.45708
▁많은	-7.46293
에는	-7.46727
보다	-7.47355
▁적어도	-7.47493
리	-7.47631
에게	-7.50255
▁6	-7.50488
이나	-7.50493
▁내	-7.50841
▁‘	-7.50915
3	-7.50972
▁데이터	-7.51037
▁따른	-7.52811
▁모든	-7.53024
적으로	-7.5362
▁때문에	-7.54265
▁단계	-7.55145
되어	-7.55594
▁연구	-7.55837
▁것은	-7.56081
며	-7.56103
▁저희	-7.56949
들을	-7.59313
사	-7.60428
▁포함하는	-7.60639
상	-7.6075
▁관련	-7.61347
화	-7.61778
/	-7.62162
어	-7.6242
주	-7.6257
▁한국	-7.6259
▁제품	-7.62778
’	-7.62963
라는	-7.63019
되고	-7.64181
▁포함한다	-7.64474
명	-7.65166
▁도	-7.65336
▁이상	-7.65446
▁“	-7.66204
하도록	-7.66455
▁특히	-7.66718
수	-7.66942
▁시스템	-7.67306
▁하나	-7.67402
▁비	-7.68093
야	-7.688
▁안	-7.68849
▁현재	-7.68881
로부터	-7.6925
▁BBB	-7.6937
들은	-7.69879
▁정보를	-7.69923
▁신호	-7.70118
차	-7.70339
에서는	-7.7111
▁모두	-7.71202
▁큰	-7.72463
조	-7.72492
▁없다	-7.72759
요	-7.73055
▁문제	-7.73486
해야	-7.73515
▁그리고	-7.7355
들	-7.73558
▁잘	-7.73847
▁제어	-7.74299
▁발명은	-7.74556
▁높은	-7.74598
이라고	-7.74808
▁정보	-7.75462
▁다음	-7.75928
”	-7.76513
▁서비스	-7.76927
▁데	-7.77364
▁주	-7.777
진	-7.77737
▁시	-7.78639
세	-7.78686
▁7	-7.79464
▁지난	-7.79633
제	-7.8006
▁8	-7.80228
되었다	-7.80776
▁영향을	-7.81055
▁있으며	-7.81332
▁있어	-7.81996
▁제공한다	-7.82081
▁저는	-7.82139
▁사용	-7.82358
습니다	-7.8237
▁분석	-7.82711
들의	-7.82772
하며	-7.83464
▁복수의	-7.84238
;	-7.8446
▁있고	-7.8453
▁입력	-7.84958
라	-7.85248
던	-7.85522
스	-7.85737
▁약	-7.86083
▁결정	-7.87131
▁될	-7.87381
▁있도록	-7.87605
선	-7.88052
▁전자	-7.88149
▁하고	-7.882
▁기술	-7.89149
▁영역	-7.89315
▁아니라	-7.8984
a	-7.89858
▁이후	-7.90068
▁갖는	-7.90668
전	-7.91142
▁교육	-7.9116
▁또	-7.91315
C	-7.91352
▁등을	-7.91367
▁중국	-7.91548
▁많이	-7.91583
▁처리	-7.916
▁하나의	-7.9172
▁없는	-7.91778
▁같이	-7.92012
▁동안	-7.92097
▁다	-7.92364
▁합니다	-7.9287
▁이를	-7.92994
▁발명	-7.93116
▁이상의	-7.93155
▁지역	-7.93175
▁정부	-7.93238
산	-7.93926
▁이번	-7.94087
▁기업	-7.94542
▁있을	-7.94936
▁된다	-7.95081
▁해	-7.95196
장	-7.95234
▁일부	-7.95509
▁9	-7.95728
▁필요	-7.96264
▁볼	-7.97091
▁새로운	-7.97328
▁부분	-7.97759
▁위치	-7.97898
▁이는	-7.979
▁밝혔다	-7.97997
▁기능	-7.98037
▁12	-7.98169
▁원	-7.99747
▁네	-8.00321
▁가능한	-8.00387
▁미국	-8.00666
라고	-8.0069
▁20	-8.01079
면서	-8.01308
원	-8.01379
▁매우	-8.0148
▁지원	-8.02171
식	-8.02223
▁등의	-8.02229
▁구성	-8.0226
▁이동	-8.02381
▁포함할	-8.02399
실	-8.02488
비	-8.02737
▁이미지	-8.03099
동	-8.0356
▁했다	-8.03906
▁사용자	-8.03992
▁제조	-8.0426
▁있어서	-8.04397
▁관리	-8.04578
아	-8.05125
부터	-8.05387
▁말했다	-8.05578
▁어떤	-8.0619
▁표시	-8.06269
▁다시	-8.06721
▁경제	-8.07275
▁상태	-8.07351
▁A	-8.07593
▁가지	-8.08006
▁최근	-8.08068
▁방법	-8.08098
▁통신	-8.08619
▁전체	-8.0927
계	-8.09467
▁총	-8.09692
▁저	-8.09723
▁간	-8.09835
▁(	-8.09871
운	-8.10047
▁국내	-8.10233
▁나	-8.10827
▁따르면	-8.11209
▁직접	-8.11959
되지	-8.12011
▁30	-8.1209
▁환자	-8.12184
하면서	-8.12544
구	-8.12867
▁나는	-8.13416
로서	-8.14084
▁설명	-8.14388
▁영상	-8.15137
회	-8.15226
▁수도	-8.15346
▁디스플레이	-8.15426
▁보고	-8.1549
하면	-8.15587
▁있었다	-8.15948
치	-8.16368
▁국가	-8.16372
▁이에	-8.16886
m	-8.1699
▁좋은	-8.17112
▁정	-8.17388
▁형성	-8.17475
▁해당	-8.17822
천	-8.17891
A	-8.17987
▁않은	-8.18117
▁동작	-8.18291
▁회사	-8.1832
▁사업	-8.18719
▁추가	-8.18804
층	-8.18944
분	-8.19
▁시간	-8.19111
▁발생	-8.19345
▁않고	-8.19427
트	-8.19448
▁정도	-8.19613
개의	-8.19771
▁출력	-8.19991
▁열	-8.20477
▁평가	-8.20478
4	-8.21137
호	-8.21241
▁필요한	-8.21574
▁있다고	-8.21641
▁11	-8.21882
▁등이	-8.21899
당	-8.21954
▁게	-8.22033
▁부재	-8.22468
▁알	-8.22828
▁여부	-8.2311
▁프로그램	-8.23118
여	-8.23327
미	-8.23397
▁변화	-8.23437
▁FFF	-8.24278
재	-8.24497
▁하지만	-8.24917
소	-8.25128
▁지지	-8.25309
▁세계	-8.25383
▁대	-8.25814
▁이들	-8.26295
▁데이터를	-8.2658
(100)	-8.26618
▁방법을	-8.26628
▁아	-8.26772
▁말	-8.26782
▁미	-8.26893
▁여러	-8.27113
▁센서	-8.27523
▁의한	-8.27661
신	-8.27774
▁환경	-8.27778
▁각각	-8.27858
▁공급	-8.27937
▁당신	-8.2802
▁실시	-8.28037
▁기판	-8.28232
▁제공	-8.28609
▁특정	-8.28613
▁제공하는	-8.29161
이며	-8.29284
으로부터	-8.29449
질	-8.29477
▁주요	-8.29782
▁나타났다	-8.29999
▁줄	-8.30043
▁검사	-8.30234
▁측정	-8.30633
관	-8.30841
했습니다	-8.30903
▁이용하여	-8.31575
도록	-8.31589
▁오	-8.31601
에도	-8.32014
▁개인	-8.32022
▁위하여	-8.32142
▁내지	-8.32265
▁것입니다	-8.32315
▁표면	-8.32811
▁김	-8.33055
▁않는	-8.33283
▁바	-8.33353
정	-8.3363
▁차량	-8.33708
▁의미	-8.33728
▁차이	-8.33747
▁외부	-8.33855
▁이런	-8.33942
▁거	-8.34307
▁사이에	-8.34627
▁들어	-8.34633
▁서로	-8.34769
▁중요한	-8.35061
▁때문이	-8.35204
▁지금	-8.35228
▁개발	-8.35452
▁광	-8.35457
▁대표	-8.35542
▁회로	-8.35896
▁시장	-8.36143
▁점	-8.36735
▁고	-8.36797
▁조사	-8.37099
▁어떻게	-8.37182
▁가운데	-8.37368
법	-8.37778
보	-8.37789
▁투자	-8.37813
19	-8.37815
▁지	-8.37848
▁위	-8.38095
▁생산	-8.38162
▁가지고	-8.38351
▁운영	-8.38516
▁세	-8.38576
▁일본	-8.38646
▁R	-8.38743
D	-8.38958
▁기존	-8.38994
이라	-8.39131
b	-8.39459
▁치료	-8.3963
▁모듈	-8.39718
▁물	-8.39928
▁작업	-8.40247
▁결합	-8.40251
▁평균	-8.403
▁사회	-8.40384
▁양	-8.40455
▁회전	-8.40715
▁자신	-8.40739
우	-8.40751
▁전력	-8.40859
하	-8.40895
경	-8.41025
▁확인	-8.41061
5	-8.41183
중	-8.41461
▁전기	-8.41511
됐다	-8.41777
종	-8.42078
▁연결	-8.42165
▁따라서	-8.42592
▁즉	-8.42675
▁못	-8.43407
▁없이	-8.43703
▁진행	-8.43709
▁사	-8.43797
▁저장	-8.43799
▁보호	-8.43846
▁서울	-8.43985
▁인식	-8.44049
▁코로나	-8.44155
▁장	-8.44298
▁B	-8.44324
▁관련된	-8.44349
▁되는	-8.44611
▁뒤	-8.44757
▁몇	-8.4487
%	-8.44967
▁선택	-8.45037
씨	-8.45157
▁있다는	-8.45435
▁학습	-8.45623
위	-8.45937
▁첫	-8.45973
▁구	-8.46014
하거나	-8.46109
▁금속	-8.46383
▁특성	-8.46403
▁바랍니다	-8.46533
으로서	-8.4672
▁방법은	-8.46818
▁고정	-8.46948
연	-8.46978
마	-8.47226
▁동시에	-8.47592
▁신	-8.48106
▁비용	-8.48151
▁기	-8.48201
함으로써	-8.48213
▁변경	-8.48411
▁15	-8.48437
▁이용	-8.48649
▁효과	-8.48661
▁있어요	-8.48708
▁달	-8.48881
▁에너지	-8.489
▁터치	-8.48962
▁콘텐츠	-8.49031
▁사실	-8.49059
▁장치는	-8.49135
군	-8.49165
▁필요하다	-8.49206
▁북한	-8.49509
▁좀	-8.49942
니	-8.49952
물	-8.50087
▁산업	-8.50122
▁제가	-8.5018
▁자	-8.50295
▁그러나	-8.50346
▁기준	-8.50398
▁너무	-8.50651
▁요소	-8.50676
▁내부	-8.51055
▁어느	-8.51072
▁과정	-8.51125
▁감소	-8.51157
▁부	-8.51216
▁더욱	-8.51275
국	-8.5147
드	-8.51592
S	-8.5174
▁설정	-8.51951
▁조직	-8.52624
▁대하여	-8.52703
▁전극	-8.5277
▁비교	-8.52817
▁대상으로	-8.52937
▁활동	-8.53002
▁않았다	-8.53027
명이	-8.53058
▁이날	-8.53337
금	-8.53756
▁구조	-8.53978
▁문화	-8.54105
유	-8.54197
▁보다	-8.54348
▁경기	-8.54383
▁메모리	-8.54627
▁가치	-8.54662
▁보인다	-8.54684
▁자료	-8.55254
▁공정	-8.55375
▁사건	-8.55419
▁상품	-8.55584
단	-8.55766
▁일반	-8.55775
▁국제	-8.55844
▁발전	-8.55942
▁기간	-8.56347
체	-8.56352
▁적용	-8.56411
▁크게	-8.56467
돼	-8.56502
▁사례	-8.56579
▁모델	-8.56588
▁최대	-8.5697
해서	-8.5704
▁판단	-8.57077
▁인해	-8.57267
▁온도	-8.57386
하여야	-8.5767
▁당시	-8.57974
▁번째	-8.58096
이고	-8.58099
▁사람	-8.58195
▁내에	-8.58257
간	-8.58259
B	-8.58315
▁바로	-8.58428
파	-8.5844
▁무	-8.58523
▁오늘	-8.58578
▁가지는	-8.58806
(10)	-8.58858
▁100	-8.58914
▁대상	-8.59647
함	-8.59661
▁이미	-8.59681
안	-8.59751
데	-8.59898
증	-8.59937
▁가스	-8.60131
▁정책	-8.60153
▁디바이스	-8.60192
▁네트워크	-8.60242
▁가격	-8.60376
▁반응	-8.60453
▁사용하여	-8.60504
란	-8.60565
▁먼저	-8.60632
▁문제가	-8.61151
▁수지	-8.61334
▁보	-8.61344
내	-8.61384
▁재료	-8.61533
▁경험	-8.61748
▁이해	-8.62167
오	-8.62196
▁주문	-8.62211
▁수준	-8.62435
▁전압	-8.62587
문	-8.62598
▁않는다	-8.62647
▁특별	-8.62777
!	-8.62788
거나	-8.62868
▁C	-8.63138
억	-8.63204
▁된	-8.6342
▁요청	-8.63427
▁수행	-8.63686
▁규모	-8.63798
(1)	-8.63889
▁S	-8.64384
▁정말	-8.64559
2)	-8.64728
▁서버	-8.64816
▁구동	-8.64855
▁산	-8.65366
▁온	-8.65483
시키는	-8.65525
▁있기	-8.65645
▁고객	-8.6565
배	-8.65727
였다	-8.65731
▁소	-8.65929
모	-8.66056
▁조정	-8.6616
▁학교	-8.66215
▁내가	-8.6692
▁재	-8.66943
▁수신	-8.67074
린	-8.6711
▁값	-8.67152
▁계속	-8.67183
시킬	-8.67258
▁시작	-8.67452
▁건	-8.67588
▁성장	-8.67627
▁경우에는	-8.67692
▁역할을	-8.67816
▁상황	-8.67994
▁전에	-8.68362
시간	-8.68577
▁각각의	-8.68856
▁안전	-8.68991
▁대부분	-8.69
▁관계	-8.69082
또는	-8.69155
▁공연	-8.69176
▁번	-8.69663
▁이어	-8.69722
▁손	-8.69731
타	-8.69875
▁올해	-8.6988
▁여행	-8.69923
▁기록	-8.70018
▁생각	-8.70146
▁패턴	-8.70207
▁비해	-8.70232
권	-8.70381
▁실제	-8.7056
▁지난해	-8.70572
▁개선	-8.7065
▁방향으로	-8.70676
▁관심	-8.70756
▁실시예에	-8.70841
▁아직	-8.70964
점	-8.70981
▁컴퓨터	-8.70991
▁참여	-8.71058
▁자체	-8.71114
지만	-8.71218
▁활용	-8.71429
▁크기	-8.71445
항	-8.71575
▁강	-8.71589
▁목표	-8.71722
▁이렇게	-8.71917
러	-8.72732
▁거래	-8.72912
▁14	-8.7297
방	-8.73
▁프레임	-8.73055
▁차	-8.73058
▁규정	-8.73071
▁50	-8.73275
▁사이의	-8.73408
▁하였다	-8.7344
처럼	-8.73464
▁기초하여	-8.7365
▁그래서	-8.73679
▁있는지	-8.73805
▁여성	-8.73873
▁낮은	-8.73935
▁반	-8.73938
▁등에	-8.74179
▁논의	-8.74377
▁카메라	-8.74397
▁프로세서	-8.74399
포	-8.74509
▁방향	-8.7459
▁귀하	-8.74666
▁개	-8.74677
▁가능성이	-8.74705
▁이제	-8.74965
판	-8.74978
▁초	-8.74986
▁되어	-8.75064
▁기반	-8.75119
▁포함하고	-8.75212
▁모	-8.7533
▁그룹	-8.75334
▁수단	-8.75453
▁위험	-8.75463
▁유	-8.75488
▁판매	-8.75553
▁설계	-8.75568
▁동	-8.75704
▁13	-8.75709
▁유지	-8.75822
▁유닛	-8.75829
▁사고	-8.75949
▁미치는	-8.76152
표	-8.76248
▁진단	-8.76253
이었다	-8.76354
▁방법에	-8.76384
▁보내	-8.76508
▁사진	-8.76559
▁계획	-8.76581
▁실행	-8.76598
▁설치	-8.7661
▁살	-8.76643
▁특징	-8.76723
▁행위	-8.76775
길	-8.7694
▁증가	-8.76969
▁행사	-8.77193
G	-8.77269
▁게임	-8.77354
▁어	-8.77434
▁세포	-8.77441
했던	-8.77551
▁사용할	-8.77571
1)	-8.77854
▁피	-8.77992
▁검출	-8.78003
▁19	-8.78536
▁16	-8.78709
▁이와	-8.79223
영	-8.79255
번	-8.79271
▁예측	-8.79298
네	-8.79502
▁18	-8.79539
르	-8.7957
▁물질	-8.79867
하고자	-8.80068
▁문	-8.80131
▁조	-8.80143
▁연구는	-8.80396
▁확산	-8.80826
됩니다	-8.81104
▁가진	-8.81108
▁있지만	-8.81264
▁배치	-8.81297
▁제도	-8.81325
▁속도	-8.81347
P	-8.81523
7	-8.81605
▁규제	-8.81614
▁명	-8.81752
▁지방	-8.81971
▁남	-8.82297
▁과정에서	-8.8231
강	-8.82346
공	-8.8252
기를	-8.82534
▁업무	-8.82669
석	-8.82679
▁향상	-8.82729
▁역시	-8.82794
▁사용자의	-8.82872
▁사회적	-8.82879
▁가능하게	-8.82968
▁얼마	-8.83292
▁여기	-8.83396
▁표현	-8.83489
▁한편	-8.83534
성을	-8.83552
▁본체	-8.83563
▁상에	-8.83567
토	-8.8359
▁아닌	-8.83681
▁의사	-8.83798
▁하	-8.83801
▁일정	-8.83992
프	-8.84005
▁개의	-8.84178
▁하기	-8.84235
▁전달	-8.84574
터	-8.84775
▁입자	-8.84795
6	-8.84871
(110)	-8.8495
▁마	-8.8496
▁사람들	-8.85162
▁위해서는	-8.85168
▁자기	-8.85201
N	-8.85371
▁무선	-8.85435
▁계약	-8.85525
류	-8.85769
▁제한	-8.85852
▁해외	-8.85857
▁음악	-8.85876
▁중심으로	-8.85981
▁인간	-8.86005
▁공간	-8.86126
▁형상	-8.86144
▁조치	-8.86187
c	-8.86279
▁알고	-8.86371
M	-8.86485
▁강화	-8.86515
▁작동	-8.86582
▁형성된	-8.86603
▁영화	-8.86729
▁상	-8.86771
에서도	-8.86949
▁그런	-8.86958
▁협력	-8.87023
▁물론	-8.87024
▁미리	-8.87218
▁제작	-8.87229
▁않을	-8.87283
▁동일한	-8.87321
R	-8.87377
학	-8.87392
▁메시지	-8.87413
▁앞서	-8.87443
▁날	-8.87457
▁생성	-8.87514
▁제거	-8.87634
▁우수	-8.87645
▁간의	-8.877
▁음성	-8.87749
▁제어부	-8.87901
▁인한	-8.88097
▁추진	-8.88187
무	-8.88336
▁길이	-8.8841
▁방지	-8.88455
▁학생	-8.88616
▁25	-8.88657
▁선	-8.88686
▁도시	-8.8878
▁박	-8.88925
민	-8.89081
▁도움이	-8.89115
난	-8.89171
▁섬유	-8.89287
▁공	-8.89399
급	-8.89445
▁여기서	-8.89519
▁있음	-8.89579
쉽게	-8.89657
▁기본	-8.89836
▁그녀	-8.8986
▁거의	-8.89951
온	-8.89988
▁나타내는	-8.90066
▁같다	-8.90179
▁단	-8.90493
▁층	-8.90519
▁24	-8.9055
▁만큼	-8.90567
▁확대	-8.90588
▁소정	-8.90612
▁공기	-8.90666
▁해결	-8.90891
▁전송	-8.90919
▁조절	-8.91042
▁효과를	-8.91093
▁것이라고	-8.91134
▁갖고	-8.91144
O	-8.91164
발	-8.91312
▁예를	-8.91468
▁연속	-8.91604
▁경기도	-8.91672
▁시트	-8.9171
▁구매	-8.91796
▁17	-8.91803
개월	-8.9187
별	-8.91974
▁포함한	-8.92039
▁요구	-8.92147
▁우려	-8.92225
T	-8.92294
▁있게	-8.92428
▁방식	-8.92489
▁대통령	-8.92591
▁걸	-8.92771
▁채널	-8.92782
직	-8.92783
▁건강	-8.92792
▁감사합니다	-8.92893
▁방	-8.93033
▁입	-8.93096
▁분리	-8.93163
▁통한	-8.93195
▁변수	-8.93644
▁예	-8.93744
명의	-8.93745
▁40	-8.93941
▁반도체	-8.9398
▁집중	-8.94015
하는데	-8.94031
▁법	-8.94115
▁자동차	-8.94518
▁저희는	-8.94559
▁압력	-8.94572
▁준비	-8.94627
감	-8.94802
▁특징으로	-8.94922
▁수술	-8.94946
▁삶	-8.94952
▁거예요	-8.94973
▁이전	-8.94995
시켜	-8.9503
▁활성화	-8.95147
▁암	-8.95191
▁정상	-8.95283
▁지적	-8.95333
▁됩니다	-8.95342
▁오후	-8.95388
현	-8.95407
▁금융	-8.95664
(2)	-8.95833
▁집	-8.95918
▁애플리케이션	-8.95942
▁우리가	-8.96194
하다	-8.96263
▁관광	-8.96309
▁마을	-8.96405
▁처음	-8.96583
설	-8.96601
축	-8.96617
▁노력	-8.96646
▁행동	-8.96664
청	-8.9681
▁타	-8.96824
s	-8.96875
▁제공된다	-8.97215
▁시간이	-8.97308
▁받은	-8.97356
▁통합	-8.97372
▁성	-8.97417
크	-8.97487
▁고려	-8.97572
▁책임	-8.9766
성이	-8.97689
▁주변	-8.97863
▁전환	-8.97876
▁시행	-8.97877
▁건물	-8.98051
교	-8.98155
▁방식으로	-8.98204
▁대응하는	-8.98231
▁배터리	-8.98285
▁21	-8.98313
▁방법이	-8.98361
▁서	-8.9851
량	-8.98614
▁피부	-8.98702
▁우리나라	-8.98713
▁기대	-8.98804
▁우선	-8.98879
▁달리	-8.9901
▁디지털	-8.99122
▁구비한	-8.99138
▁관계자	-8.99269
8	-8.99291
▁필름	-8.99333
▁추정	-8.99392
▁주로	-8.99657
▁난	-8.99842
초	-8.99849
▁이야기	-8.99862
▁절차	-8.99887
▁유기	-8.99976
▁작은	-9.00077
▁P	-9.00281
▁예방	-9.00293
▁상호	-9.00441
▁인증	-9.00485
(200)	-9.00515
▁왜	-9.00595
▁등으로	-9.00608
▁연	-9.00627
▁병원	-9.00662
(120)	-9.00826
▁기기	-9.00933
임	-9.00961
▁하여	-9.01076
▁이름	-9.01132
▁분류	-9.01145
피	-9.01205
▁자동	-9.01273
출	-9.0135
건	-9.01381
▁단말	-9.01393
▁경로	-9.01434
주의	-9.01444
▁받고	-9.01445
▁혹은	-9.01503
▁감사	-9.01518
되어야	-9.01543
업	-9.01577
▁사람이	-9.01652
▁조건	-9.01738
▁도입	-9.01753
▁인터페이스	-9.01774
▁접촉	-9.0179
▁패널	-9.01952
▁거리	-9.02003
▁감염	-9.02068
자가	-9.02133
양	-9.02163
▁주장	-9.02334
V	-9.02396
▁예정	-9.02415
▁보면	-9.02551
루	-9.02552
▁22	-9.02616
▁내용을	-9.02631
었다	-9.02686
▁싶습니다	-9.02737
▁하지	-9.02936
▁중심	-9.02954
▁사용하는	-9.02974
▁화합물	-9.03051
들에	-9.0308
▁다만	-9.0312
▁의료	-9.03289
▁당사	-9.03482
▁상승	-9.03631
론	-9.03696
▁정의	-9.03709
▁교수	-9.03788
▁소비	-9.03831
▁수업	-9.039
▁당	-9.03964
교육	-9.0397
▁방송	-9.04008
승	-9.04178
e	-9.04191
릴	-9.04241
▁독일	-9.04288
▁공동	-9.04318
▁내에서	-9.04463
▁불	-9.04677
▁분야	-9.04697
▁안녕하세요	-9.04708
:	-9.04726
▁아래	-9.04732
▁이벤트	-9.0493
▁않다	-9.04935
되기	-9.05017
▁중앙	-9.05039
▁팀	-9.05051
▁있	-9.05077
되며	-9.0508
▁통하여	-9.05099
▁부동산	-9.05132
▁제품은	-9.0523
▁유리	-9.05299
력	-9.05488
심	-9.05488
▁운동	-9.05687
▁전문	-9.05694
▁화상	-9.05695
▁수출	-9.05705
▁방문	-9.05849
▁가족	-9.06134
▁확장	-9.06458
▁씨	-9.06545
L	-9.06586
▁사람들이	-9.06628
는데	-9.06629
▁되었다	-9.06638
이에요	-9.06745
되면	-9.06927
▁감지	-9.07034
▁대해서	-9.07385
▁상대적	-9.07697
어요	-9.07728
▁T	-9.07729
광	-9.07738
▁앞으로	-9.07851
d	-9.07858
▁구성된	-9.07932
▁구축	-9.07999
▁자리	-9.08031
▁받을	-9.0808
▁지급	-9.08083
▁시설	-9.08131
▁회의	-9.08305
▁M	-9.08333
▁기준으로	-9.08367
▁연락	-9.08386
▁행정	-9.08426
▁대비	-9.08437
▁오는	-9.08495
F	-9.08595
려	-9.08596
디	-9.08751
▁시스템은	-9.0879
▁수용	-9.09002
▁전원	-9.09061
▁발생하는	-9.09091
▁그림	-9.09207
▁그것	-9.09308
▁상부	-9.09335
▁대응	-9.09352
▁식별	-9.09399
▁최종	-9.09433
▁신청	-9.09507
했다고	-9.09691
각	-9.09788
▁정치	-9.09799
▁공유	-9.09862
반	-9.09906
사업	-9.09926
▁스	-9.09931
▁내의	-9.10061
생	-9.10177
▁해야	-9.10191
▁광고	-9.10248
▁전류	-9.10412
▁셀	-9.10664
▁하면	-9.10683
음	-9.10851
▁법률	-9.11148
▁표	-9.11157
불	-9.11183
▁노	-9.11234
두	-9.11509
▁조성물	-9.11522
▁새	-9.11673
▁제공할	-9.11678
▁이것은	-9.11686
병	-9.11723
했고	-9.11761
▁가능하다	-9.12032
▁생활	-9.12092
▁미래	-9.12156
▁모바일	-9.12343
▁분	-9.1237
열	-9.1237
▁글로벌	-9.12384
▁단위	-9.12406
년에	-9.12408
▁관계를	-9.12428
(3)	-9.12581
인지	-9.12584
▁확진자	-9.12622
▁영국	-9.12649
그	-9.1284
▁변환	-9.13133
▁D	-9.13207
▁실험	-9.13292
▁K	-9.13325
▁예약	-9.13407
▁존재	-9.13482
▁a	-9.13521
▁블록	-9.13693
▁기계	-9.13733
▁권리	-9.13758
▁하루	-9.13789
▁시간을	-9.13895
▁측	-9.14025
▁면	-9.14025
▁제안	-9.14142
▁받아	-9.14178
죠	-9.14223
코	-9.14277
▁그것은	-9.14334
▁연구에서는	-9.14443
▁선수	-9.14491
▁자연	-9.14544
▁인구	-9.14644
▁조작	-9.14658
▁편	-9.14662
예	-9.14871
▁온라인	-9.14931
져	-9.14963
▁핵심	-9.15058
▁것도	-9.15103
▁막	-9.15171
▁검색	-9.15178
▁모형	-9.15301
0	-9.1535
▁가능성	-9.15351
),	-9.15386
▁두고	-9.1544
▁군	-9.15461
▁식	-9.15498
▁안내	-9.15628
▁수입	-9.15647
▁갈	-9.15727
▁공개	-9.15808
▁전국	-9.15892
▁인터넷	-9.15937
▁배송	-9.15941
약	-9.15965
▁전했다	-9.15969
▁범위	-9.15984
노	-9.16148
▁개정	-9.16168
▁계산	-9.16255
▁배	-9.1629
▁개별	-9.16328
▁자유	-9.16447
▁만들어	-9.16565
▁일반적으로	-9.16567
바	-9.16657
▁그렇게	-9.16713
▁것에	-9.16835
정보	-9.16851
▁그런데	-9.16928
마다	-9.16932
▁위해서	-9.16935
▁의견	-9.17002
▁요인	-9.17034
▁부산	-9.17045
▁전통	-9.17072
i	-9.17095
▁보험	-9.17114
▁대해서는	-9.17145
▁목적으로	-9.17155
▁지정	-9.17362
▁대학	-9.1739
▁없습니다	-9.17457
티	-9.1752
▁다수의	-9.17555
▁조금	-9.17559
레	-9.17661
▁키	-9.17665
▁품질	-9.17732
▁점에서	-9.17746
▁형태	-9.17762
▁있나요	-9.17807
년간	-9.17864
하겠습니다	-9.17927
▁23	-9.17929
▁지속	-9.18006
10	-9.18052
▁후에	-9.18055
▁시험	-9.18057
▁외	-9.18231
▁상당	-9.18326
▁해석	-9.18346
▁초기	-9.18575
▁가열	-9.18613
▁접속	-9.18694
(20)	-9.18718
9	-9.18776
▁경우에	-9.18857
▁갖는다	-9.18937
▁학생들	-9.18955
▁촬영	-9.19018
▁사용자가	-9.19051
▁발표	-9.19187
장치	-9.19206
▁반면	-9.19364
▁정부가	-9.1955
▁연장	-9.19568
▁기관	-9.19571
▁판정	-9.19576
▁등록	-9.1959
▁한국의	-9.19606
▁전화	-9.19638
▁없었다	-9.19789
박	-9.1993
▁사항	-9.20002
▁귀사	-9.20029
되도록	-9.20086
▁교사	-9.201
▁환자의	-9.20169
p	-9.20176
▁목적	-9.2025
▁부담	-9.20295
I	-9.20401
▁N	-9.20645
▁이익	-9.20657
▁부품	-9.20659
▁조성	-9.20737
▁있는데	-9.20743
▁방안	-9.20786
여전히	-9.20873
측	-9.20893
▁되고	-9.2095
▁중에	-9.21105
▁돈	-9.21173
▁이유	-9.21196
들과	-9.212
▁성과	-9.21467
▁실	-9.21643
▁불구하고	-9.21654
편	-9.2171
▁홈	-9.21721
▁있지	-9.21856
일부터	-9.21916
▁매	-9.22014
▁의하여	-9.22017
▁31	-9.22135
▁백	-9.22141
▁용기	-9.22143
▁소득	-9.22247
▁예정이다	-9.22251
억원	-9.22393
▁배출	-9.2252
▁내용	-9.22531
거	-9.22763
▁심	-9.22764
▁기구	-9.22794
▁당신이	-9.22885
▁디자인	-9.22909
▁관심이	-9.22913
역	-9.22916
▁모드	-9.2306
▁한계	-9.23083
막	-9.23203
▁충전	-9.23269
▁항상	-9.23279
되면서	-9.23302
▁재생	-9.23351
▁상황에서	-9.2337
▁힘	-9.23523
기업	-9.23617
본	-9.23708
▁연료	-9.23731
▁보안	-9.23835
▁결제	-9.23881
창	-9.2392
▁확인할	-9.23973
▁수행할	-9.24006
액	-9.24109
▁소비자	-9.24192
▁집단	-9.24194
▁브랜드	-9.24445
환	-9.24531
▁라인	-9.24559
H	-9.24581
▁접근	-9.24621
관리	-9.24641
태	-9.24757
▁구멍	-9.24849
▁음식	-9.24879
▁은행	-9.24902
▁성능	-9.24919
▁열린	-9.24965
▁엔진	-9.24966
▁소재	-9.25145
▁송신	-9.2522
저	-9.25266
▁비디오	-9.25299
▁단말기	-9.253
▁파일	-9.25408
▁세트	-9.2561
▁발생한	-9.25661
▁같아요	-9.2569
▁입장	-9.25918
통	-9.25931
▁L	-9.25956
▁필터	-9.25968
▁단순	-9.26072
지는	-9.26177
▁좋아	-9.26203
▁노드	-9.2621
▁자원	-9.26224
▁수집	-9.26409
▁프로젝트	-9.26439
▁속	-9.26459
▁의미한다	-9.26512
▁그러	-9.2657
▁감독	-9.26584
▁반대	-9.26594
▁주파수	-9.26611
율	-9.26619
▁작품	-9.26787
▁길	-9.26796
▁유럽	-9.26803
카	-9.26909
▁의무	-9.26951
▁향후	-9.26971
▁각종	-9.27034
▁억제	-9.27049
▁냉각	-9.27108
▁눈	-9.27137
속	-9.27208
즈	-9.27309
▁단체	-9.27322
밖에	-9.27381
▁코팅	-9.27414
▁농도	-9.2743
t	-9.27501
▁만	-9.27603
r	-9.2761
▁경찰	-9.27679
색	-9.2785
▁수소	-9.27929
▁종	-9.28018
▁질환	-9.28045
▁그럼	-9.28098
]	-9.28112
▁원인	-9.28248
▁기재	-9.28285
준	-9.28316
▁가정	-9.28347
▁인도	-9.28409
▁그들은	-9.28434
▁않아	-9.28474
▁같습니다	-9.28568
g	-9.28655
▁어려운	-9.2899
▁표면에	-9.29043
▁장비	-9.29067
▁원하는	-9.29079
▁순	-9.29232
▁리	-9.2925
▁포함된	-9.29262
자의	-9.2934
입	-9.29368
▁나머지	-9.29413
랑	-9.29508
▁한다는	-9.2951
▁식품	-9.29562
▁호텔	-9.29606
▁H	-9.29925
▁충분	-9.30027
▁플랫폼	-9.30035
▁도로	-9.30217
▁형태로	-9.3047
▁사전	-9.30509
▁유도	-9.30568
▁받는	-9.30589
년부터	-9.30789
▁I	-9.30853
센터	-9.30947
▁추천	-9.30979
▁베이스	-9.31026
▁지도	-9.31061
▁과거	-9.31133
▁연구에서	-9.31169
▁안에	-9.31207
▁러시아	-9.31222
▁지식	-9.31266
하기로	-9.31288
▁혁신	-9.31342
암	-9.31373
▁획득	-9.31389
▁중에서	-9.31425
▁질병	-9.31535
▁중인	-9.3155
▁이용한	-9.31562
▁유엔	-9.31618
▁작용	-9.31704
▁질	-9.31767
▁가질	-9.32038
(130)	-9.32041
▁마스크	-9.32074
▁한다고	-9.32102
▁하부	-9.32122
▁구비하고	-9.32134
▁장치에	-9.32153
림	-9.32375
봉	-9.32479
▁가상	-9.32568
▁역사	-9.32593
▁축	-9.32616
▁예산	-9.32619
▁건설	-9.32829
기관	-9.32951
o	-9.32968
▁미디어	-9.32992
▁삼	-9.32992
▁화면	-9.33039
골	-9.33093
▁최고	-9.33094
부를	-9.33225
▁단백질	-9.33384
뿐만	-9.33402
▁후보	-9.33414
K	-9.33423
▁못한	-9.33477
▁검증	-9.33708
▁아니	-9.33755
▁인	-9.33796
절	-9.33899
▁없	-9.33908
▁검토	-9.33922
▁포함	-9.33947
더	-9.33995
▁반복	-9.34001
▁통제	-9.34022
▁관찰	-9.34049
▁확보	-9.34098
▁성분	-9.34111
▁중간	-9.34205
▁전문가	-9.34273
▁상대	-9.34297
해요	-9.34436
▁실제로	-9.34445
일까지	-9.34507
▁고용	-9.34555
▁경제적	-9.34656
▁신규	-9.34676
인데	-9.34709
▁대출	-9.34777
▁사용될	-9.34792
▁일이	-9.35144
래	-9.35147
▁명령	-9.3516
▁조명	-9.35184
들에게	-9.35248
▁제공합니다	-9.35268
▁유체	-9.35479
▁웹	-9.35577
▁보였다	-9.35608
▁청구	-9.35642
▁적절한	-9.3567
▁책	-9.35693
살	-9.35704
▁그들	-9.35736
▁경쟁	-9.35833
등	-9.36001
▁것과	-9.36016
위원회	-9.36051
▁발명에	-9.36092
(12)	-9.36211
▁외국인	-9.36368
후	-9.3647
친	-9.36688
▁복합	-9.36801
집	-9.36809
▁앞	-9.36885
▁장소	-9.36944
▁기타	-9.36949
▁발견	-9.3698
20	-9.37011
▁구조를	-9.37075
▁가지며	-9.37096
염	-9.37128
▁바이러스	-9.37253
▁사용되는	-9.37321
▁소자	-9.37391
▁코	-9.37433
▁구성된다	-9.37449
▁곧	-9.37467
▁보장	-9.37504
▁최소	-9.37568
했을	-9.37592
▁주택	-9.37622
▁올	-9.37678
▁발	-9.37763
▁금	-9.37823
▁지난달	-9.37851
▁도움	-9.37855
▁왔다	-9.37869
키	-9.37953
되었습니다	-9.3798
▁진짜	-9.37982
▁축제	-9.38081
습니까	-9.38128
▁호	-9.3814
▁금지	-9.38163
▁위에	-9.38179
▁구청장	-9.38268
▁회복	-9.38293
▁성형	-9.38346
▁중요하다	-9.38404
▁개방	-9.38405
▁가입	-9.38436
으며	-9.38509
▁렌즈	-9.38511
▁곳	-9.38538
▁형성하는	-9.38556
▁함유하는	-9.38564
▁작성	-9.38576
▁개념	-9.3858
▁코드	-9.38591
▁성공	-9.38594
엔	-9.38615
▁오전	-9.38673
▁수정	-9.38684
▁않습니다	-9.38753
▁액체	-9.3877
▁바탕으로	-9.3881
▁피고	-9.3882
▁됐다	-9.38851
지역	-9.38857
▁아무	-9.38902
▁들	-9.38991
▁거야	-9.39033
▁모터	-9.39277
상의	-9.39333
▁뿐만	-9.39424
▁장치의	-9.39427
▁폭	-9.39467
지를	-9.3952
▁여	-9.39536
▁물품	-9.39566
▁무역	-9.39607
산업	-9.39679
▁가능합니다	-9.39748
▁가공	-9.39885
▁단일	-9.39946
▁흡수	-9.39971
▁없어	-9.39971
목	-9.40107
▁자세	-9.40151
▁취소	-9.40181
n	-9.40223
▁장애	-9.40277
▁밸브	-9.40301
▁가구	-9.40461
▁측면	-9.40492
▁추가로	-9.40607
▁60	-9.40613
▁프랑스	-9.40642
▁담당	-9.40736
했지만	-9.40914
▁서브	-9.40954
▁것이라	-9.40957
▁이행	-9.41064
복	-9.41091
▁객체	-9.41097
▁소프트웨어	-9.41112
W	-9.41274
▁로봇	-9.41276
▁하우징	-9.4136
▁아니다	-9.41395
▁취득	-9.4142
▁상이	-9.41507
매	-9.41549
▁시기	-9.41603
▁부착	-9.41665
▁선정	-9.41692
▁관련하여	-9.417
▁체계	-9.4174
▁예상	-9.41774
▁빨리	-9.42071
▁체험	-9.42112
▁우	-9.42193
했어요	-9.42207
▁메일	-9.42219
만원	-9.42247
별로	-9.42261
▁주는	-9.42424
(4)	-9.42481
▁커버	-9.4252
▁감	-9.42533
▁함유	-9.42557
▁측면에서	-9.42567
▁소송	-9.42618
▁위치에	-9.42677
▁빠르	-9.42716
제도	-9.42784
▁신체	-9.42885
으면	-9.42927
네요	-9.43118
▁적	-9.4313
▁스마트	-9.43132
수록	-9.43169
▁차단	-9.43273
▁채	-9.43278
▁하며	-9.43279
▁보상	-9.43346
▁주세요	-9.434
▁높이	-9.4342
남	-9.4358
▁응답	-9.43656
▁친구	-9.43671
▁현장	-9.43733
▁받았다	-9.43738
▁현실	-9.43747
▁지불	-9.43751
▁요리	-9.43774
▁염	-9.43848
▁나라	-9.43919
▁완화	-9.43953
행	-9.44032
▁소스	-9.44092
▁연결된	-9.44113
▁가진다	-9.44232
▁간단	-9.44411
▁변	-9.44436
▁혼합	-9.44453
백	-9.44522
▁식물	-9.4467
했으며	-9.44796
까	-9.44798
▁구체적	-9.44872
▁가능	-9.44887
▁분위기	-9.45008
▁보조	-9.4504
▁통과	-9.45124
▁맛	-9.45175
▁장기	-9.45193
▁위반	-9.45195
외	-9.45196
근	-9.4528
▁바와	-9.45342
▁보이는	-9.45359
▁뜻	-9.45372
▁28	-9.4538
▁명확	-9.45439
▁EU	-9.45443
망	-9.45446
▁신뢰	-9.45459
▁카드	-9.45494
▁판	-9.45506
▁결국	-9.45515
▁배치된	-9.45529
▁꼭	-9.45556
▁승인	-9.45568
▁시대	-9.45614
▁빔	-9.45657
니다	-9.45663
▁업체	-9.45726
▁항	-9.45734
▁해요	-9.45791
▁행	-9.4584
▁최	-9.45867
▁말한다	-9.45929
」	-9.46003
▁27	-9.46019
▁2017	-9.46022
▁변형	-9.46168
▁합의	-9.46226
▁상태에서	-9.46345
▁주식	-9.46491
달러	-9.46532
▁스크린	-9.46567
든	-9.46582
▁플레이트	-9.46613
▁정보에	-9.4663
▁26	-9.4664
문화	-9.46729
▁기초	-9.46732
▁-	-9.46734
년대	-9.46781
▁뭐	-9.46971
▁발광	-9.47074
E	-9.47076
▁경	-9.4726
▁E	-9.4728
다고	-9.4734
▁조선	-9.47341
▁한번	-9.4738
▁시민	-9.47388
▁오래	-9.47502
▁미국의	-9.47542
▁사랑	-9.47633
장은	-9.47646
▁지나	-9.47664
▁많다	-9.47695
▁명의	-9.47746
▁필요성	-9.47818
▁최초	-9.48041
▁경영	-9.48051
▁과학	-9.48145
▁인쇄	-9.48173
시설	-9.48261
▁공격	-9.48268
▁레벨	-9.48289
▁이유로	-9.4831
▁만족	-9.48342
▁언급	-9.4837
▁훈련	-9.48407
▁일단	-9.48421
품	-9.48429
▁기반으로	-9.48492
▁V	-9.48581
▁강조했다	-9.48612
▁보는	-9.4866
▁높다	-9.4873
▁광학	-9.4874
▁중량	-9.48741
▁추출	-9.4875
▁복수	-9.48784
▁동물	-9.48888
▁재정	-9.49112
▁2015	-9.49159
▁마지막	-9.49217
▁수요	-9.49256
▁역	-9.49377
▁스위치	-9.49671
▁구비	-9.49746
▁0	-9.49755
▁제시	-9.49786
▁되	-9.49828
▁표준	-9.49836
률	-9.49886
4)	-9.49891
▁인기	-9.49906
▁제출	-9.50004
▁전망	-9.50071
시킨다	-9.50089
▁원고	-9.5013
▁소리	-9.50228
▁대신	-9.50239
▁나서	-9.50365
▁해서	-9.50394
▁공공	-9.50436
▁지역의	-9.50472
▁현지	-9.50482
f	-9.50527
▁선택된	-9.50558
▁대화	-9.50632
▁임상	-9.5073
▁만에	-9.50754
▁현	-9.50798
기도	-9.50893
곡	-9.51029
▁구분	-9.51045
▁파	-9.51159
링	-9.51212
스트	-9.51236
▁문서	-9.51248
▁시도	-9.51306
▁신고	-9.51316
▁금액	-9.5144
▁이하	-9.51497
▁자금	-9.51521
▁마련	-9.51639
씬	-9.51675
▁스마트폰	-9.51677
▁뿐	-9.51686
▁나타낸다	-9.51813
▁자산	-9.5187
▁자본	-9.51874
▁매체	-9.51919
▁벽	-9.52013
▁영업	-9.52122
변	-9.52123
▁소개	-9.52275
▁북	-9.52313
▁아주	-9.52381
▁통해서	-9.52382
▁부족	-9.52408
▁직원	-9.52683
▁액세스	-9.52741
▁얻을	-9.52741
▁주목	-9.52792
탄	-9.5284
▁기회	-9.52874
▁만드는	-9.52891
▁주민	-9.52897
▁기후	-9.52943
▁유형	-9.53026
▁<	-9.53029
▁태도	-9.53067
▁독립	-9.53177
▁언제	-9.53188
▁연구가	-9.53189
▁그대로	-9.53301
▁근무	-9.534
▁영역에	-9.53512
▁크다	-9.53581
시키기	-9.53644
▁제대로	-9.53653
▁전략	-9.5369
▁현상	-9.53744
▁예술	-9.53878
▁달러	-9.53916
(30)	-9.53998
▁피해	-9.54039
▁지연	-9.54121
▁정확한	-9.54144
▁장착	-9.54186
▁만들	-9.54246
▁있으면	-9.54297
▁체제	-9.54324
▁활동을	-9.54336
▁수직	-9.54349
▁알려	-9.54355
▁활성	-9.54412
▁정도로	-9.54416
▁그동안	-9.54467
▁X	-9.54493
▁부과	-9.54527
▁너	-9.54572
▁친	-9.54607
▁미만	-9.54651
▁안정	-9.54736
▁유사한	-9.54744
정책	-9.5483
날	-9.54894
▁만든	-9.54905
▁아동	-9.54953
▁지속적으로	-9.55009
▁2016	-9.5501
▁개최	-9.55094
기간	-9.55095
▁이루어지는	-9.55257
▁투여	-9.55315
가지	-9.5534
▁비롯	-9.55374
▁아이	-9.55381
▁분포	-9.55405
▁위기	-9.55448
▁국민	-9.55462
▁29	-9.55463
▁탄소	-9.55537
▁보여	-9.55563
▁인공	-9.55567
팀	-9.55698
▁상태로	-9.55721
▁얘기	-9.55744
▁통	-9.5597
▁않도록	-9.56011
▁황	-9.56061
▁정보가	-9.5614
▁비판	-9.56142
▁「	-9.56158
▁아시아	-9.56184
▁마음	-9.56208
령	-9.56219
▁앱	-9.56262
▁구성되는	-9.56289
▁별	-9.56467
▁여기에	-9.56482
이하	-9.56522
▁스스로	-9.56567
▁빠른	-9.56567
▁텍스트	-9.56569
▁혹시	-9.56574
▁오디오	-9.56587
▁손상	-9.56607
▁수치	-9.56646
▁글	-9.5665
▁되면	-9.5666
▁인정	-9.56705
▁F	-9.56799
▁진	-9.56822
▁병	-9.56836
철	-9.56842
▁사이에서	-9.5696
락	-9.57005
▁챔버	-9.57125
▁완전히	-9.57164
▁결과는	-9.5719
▁대구	-9.57269
보다는	-9.57437
▁찾아	-9.57509
▁G	-9.57583
씩	-9.57712
긴	-9.57729
▁신종	-9.57751
▁연기	-9.57755
▁고무	-9.57778
▁팔	-9.57791
▁디	-9.57852
▁종류	-9.57861
함에	-9.5791
▁해제	-9.58205
▁영	-9.58343
▁나왔다	-9.58363
▁적극	-9.58426
▁회장	-9.58452
었던	-9.58453
▁둘	-9.58461
▁메뉴	-9.58542
▁수사	-9.58556
▁비율	-9.58692
▁목	-9.58773
처	-9.58796
한다고	-9.58801
훨	-9.5882
▁민간	-9.58879
▁이메일	-9.58884
▁보도했다	-9.58891
▁포함되어	-9.58904
점을	-9.58936
▁방법으로	-9.58952
▁개시	-9.59214
∼	-9.59278
▁사망	-9.59332
학년	-9.59398
자에게	-9.59442
▁헤드	-9.59463
하지만	-9.59483
▁200	-9.59512
▁만약	-9.59518
평	-9.5952
명으로	-9.59563
▁언어	-9.59644
▁기억	-9.59661
▁b	-9.597
▁경계	-9.59924
▁문의	-9.59949
▁잘못	-9.5997
순	-9.59985
▁증거	-9.60031
▁레이저	-9.60068
▁이루어진	-9.60164
▁종류의	-9.60177
▁몸	-9.60243
▁종료	-9.60271
작	-9.60289
이란	-9.60305
▁해당하는	-9.60355
화된	-9.60366
▁자주	-9.60444
▁환자는	-9.60463
▁속에서	-9.60592
▁분산	-9.60655
▁과제	-9.6066
▁흐름	-9.60675
▁유통	-9.60729
▁아파트	-9.60735
▁저항	-9.60821
▁정지	-9.60869
▁치료를	-9.60903
▁출시	-9.6103
▁모양	-9.61057
▁지시	-9.61088
▁공식	-9.61154
▁브라질	-9.61174
▁조합	-9.61217
▁근거	-9.61234
▁패드	-9.61243
▁게이트	-9.61256
▁직업	-9.61303
(11)	-9.61344
▁이전에	-9.61355
▁장관	-9.61432
▁움직임	-9.61497
▁중단	-9.61566
▁토	-9.6166
▁죽	-9.6168
▁도전	-9.61723
▁발행	-9.61767
▁대기	-9.61785
▁일자리	-9.61834
▁시각	-9.61837
▁양성	-9.6184
대로	-9.61844
▁전지	-9.62022
▁적합한	-9.62039
▁대회	-9.62052
하실	-9.62083
3)	-9.62137
채	-9.62273
▁운전	-9.62274
▁직무	-9.62298
▁걸쳐	-9.62307
▁보관	-9.62338
▁추적	-9.62376
결	-9.62382
▁그냥	-9.62416
▁교환	-9.62435
▁강도	-9.62489
투	-9.62556
▁카	-9.6257
향	-9.62654
▁소속	-9.62725
기에	-9.62857
▁배우	-9.629
▁단부	-9.62957
▁없을	-9.62965
▁범죄	-9.63016
▁임의	-9.63017
▁풀	-9.63031
▁모습을	-9.6309
▁결정하는	-9.63138
▁이용자	-9.6323
▁지표	-9.63265
▁남성	-9.6328
▁두께	-9.63318
▁때문	-9.63344
▁협상	-9.63385
▁희망	-9.6349
▁절단	-9.63505
-1	-9.63534
▁촉매	-9.63562
하세요	-9.63591
▁설립	-9.63709
▁매년	-9.6372
▁구현	-9.63895
▁보고서	-9.63945
▁반드시	-9.64085
▁없고	-9.64086
▁판결	-9.64116
▁노래	-9.64197
▁지금까지	-9.64305
▁프로세스	-9.64332
▁백신	-9.64344
▁입원	-9.64402
▁공통	-9.64431
▁인지	-9.64461
▁진동	-9.64616
자는	-9.64617
▁오히려	-9.64687
▁겁니다	-9.64782
▁대체	-9.64886
▁참가	-9.64894
임을	-9.65127
희	-9.6525
▁싶은	-9.65272
(300)	-9.65295
▁무료	-9.65313
▁2018	-9.65422
▁항목	-9.65427
▁그러면	-9.65429
y	-9.65493
▁공장	-9.65495
▁나온다	-9.65497
▁긍정적인	-9.655
>	-9.65521
하였고	-9.6556
▁합성	-9.65575
▁사이	-9.65605
▁노동	-9.65608
추	-9.65666
▁선거	-9.65678
U	-9.65715
▁폐	-9.65736
제를	-9.65848
브	-9.65857
▁대통령이	-9.65858
▁예에	-9.65905
▁화	-9.65952
▁무엇	-9.65952
▁페이지	-9.65971
기술	-9.6598
▁불법	-9.66001
▁케이스	-9.66043
▁이유는	-9.66312
▁분할	-9.66312
▁토지	-9.66461
▁삽입	-9.66505
볼	-9.66607
▁산소	-9.66777
▁신경	-9.66805
시장	-9.6683
되거나	-9.66871
되	-9.66883
▁청소년	-9.66889
▁접	-9.66931
▁제약	-9.66938
▁어렵다	-9.66958
+	-9.66999
▁법적	-9.67005
료	-9.67034
하겠다	-9.67091
▁어떠한	-9.67134
▁모니터링	-9.67168
▁자녀	-9.67193
▁때에는	-9.67305
▁참	-9.67573
▁분말	-9.67583
▁정보는	-9.67585
▁체결	-9.67734
▁효율	-9.6777
▁누구	-9.67784
▁내용이	-9.67869
워	-9.67954
▁무기	-9.68061
년까지	-9.68065
갈	-9.68105
차원	-9.68115
▁역량	-9.68133
▁위치한	-9.68148
▁요	-9.68149
▁식사	-9.68165
시킨	-9.68272
말	-9.68274
▁요건	-9.68331
▁운송	-9.68341
▁중합체	-9.6841
▁패키지	-9.68429
▁한국에서	-9.68495
▁2019	-9.68506
▁센터	-9.68559
▁기반하여	-9.68628
하던	-9.68655
▁교통	-9.68676
▁전면	-9.68714
▁샘플	-9.68779
▁도구	-9.68809
▁파악	-9.68932
(5)	-9.68988
▁달성	-9.68991
▁내부에	-9.69012
▁베트남	-9.6905
X	-9.6906
▁향	-9.69077
▁칩	-9.69277
▁인력	-9.69347
▁받지	-9.69642
30	-9.69686
▁데이터베이스	-9.69688
▁대형	-9.69693
▁지수	-9.69701
▁생성하는	-9.69855
▁자신이	-9.69858
지원	-9.69876
너	-9.69959
한다는	-9.69964
▁상담	-9.70009
▁임	-9.70034
▁파라미터	-9.70138
▁탄성	-9.70144
▁원칙	-9.70154
▁연산	-9.70161
▁저하	-9.70165
▁거쳐	-9.70181
▁의원	-9.70226
상에	-9.70232
시키고	-9.70232
▁돼	-9.70248
▁자극	-9.7028
하려는	-9.70315
▁인사	-9.70322
▁음	-9.70403
▁의도	-9.70474
▁되지	-9.70525
▁약간	-9.70585
력을	-9.70601
만큼	-9.70605
▁투명	-9.7067
었습니다	-9.70691
▁위원회	-9.7073
▁비트	-9.70767
부에	-9.70775
▁동일	-9.70842
▁이거	-9.70847
▁보유	-9.70847
▁손실	-9.70897
▁이때	-9.70942
▁유전자	-9.70958
▁유발	-9.70976
▁새로	-9.71011
▁개구	-9.71037
▁종양	-9.71153
▁실현	-9.7122
▁관점에서	-9.71303
▁홍보	-9.71422
▁당국	-9.7153
▁튜브	-9.71565
▁매출	-9.71569
▁참석	-9.71581
▁제품에	-9.71598
▁역할	-9.71614
▁대한민국	-9.71672
격	-9.71675
▁어린이	-9.71715
▁의하면	-9.71731
▁외국	-9.71747
▁수행하는	-9.71779
▁수익	-9.71784
▁실질적으로	-9.71804
▁드립니다	-9.71827
▁핵	-9.71922
▁구성되어	-9.71923
▁비중	-9.71978
▁피고인	-9.72053
환경	-9.72118
하려고	-9.72194
▁좋습니다	-9.72214
▁성격	-9.72225
자를	-9.72252
▁노출	-9.72259
▁첨가	-9.72283
범	-9.72299
▁생성된	-9.72333
▁보이고	-9.72447
▁효율적	-9.72523
▁음식을	-9.72575
▁완료	-9.72578
▁물체	-9.7259
▁돌	-9.72608
드리겠습니다	-9.72618
▁오염	-9.72714
▁AI	-9.72756
사가	-9.72802
압	-9.7283
▁부탁드립니다	-9.7287
▁비즈니스	-9.7291
▁색상	-9.72917
활동	-9.72932
▁점이	-9.72939
▁있던	-9.72979
단계	-9.72984
▁주행	-9.73006
나요	-9.73015
▁창	-9.73038
▁계수	-9.73139
덕	-9.73248
▁분해	-9.73292
▁유의한	-9.73328
▁노인	-9.73362
▁하겠습니다	-9.73365
▁감시	-9.73374
▁전반	-9.73495
▁대규모	-9.73533
▁전혀	-9.73559
▁물건	-9.73578
▁도출	-9.73608
▁가는	-9.73626
▁방향을	-9.73653
값	-9.73698
▁건조	-9.73773
▁현대	-9.73821
▁장치가	-9.7389
▁가이드	-9.73926
▁최고의	-9.73928
님	-9.74137
▁압축	-9.74145
▁확정	-9.74221
▁용이하게	-9.7424
▁있었	-9.74284
▁부분은	-9.743
▁송	-9.74374
▁이온	-9.74381
▁천	-9.74382
울	-9.74384
▁농업	-9.74413
▁트랜지스터	-9.74432
▁형성된다	-9.74459
▁교류	-9.74483
▁세부	-9.74508
▁때는	-9.74523
▁기회를	-9.74874
▁격리	-9.74877
▁알려졌다	-9.7488
▁별도	-9.74892
▁이용하는	-9.74918
▁스트레스	-9.74954
▁개시된다	-9.74966
▁2014	-9.74966
▁받았	-9.74997
기는	-9.75089
▁적극적으로	-9.75097
▁명이	-9.75101
▁통계	-9.75149
▁화학	-9.75398
▁같아	-9.75399
되었고	-9.75402
▁걱정	-9.75492
▁전시	-9.75516
▁강한	-9.75537
▁애	-9.75647
물을	-9.75687
▁채권	-9.75729
니까	-9.7576
▁설정된	-9.75775
▁미세	-9.75815
▁보존	-9.75924
줄	-9.75961
▁교체	-9.75973
▁어려움	-9.76071
낼	-9.76118
▁포인트	-9.76131
▁포장	-9.76213
▁수신된	-9.76295
▁충격	-9.76308
▁허용	-9.76369
▁용액	-9.76407
▁화학식	-9.76465
l	-9.76499
▁연계	-9.76552
▁낮	-9.76635
마을	-9.7664
▁형	-9.76672
▁덧붙	-9.76882
▁초점	-9.76892
▁싶어요	-9.76916
▁발명품	-9.76929
▁부여	-9.7693
▁추세	-9.76941
▁뇌	-9.76997
▁케이블	-9.77005
▁조세	-9.77006
▁박물관	-9.77018
▁보수	-9.77021
▁진출	-9.77056
▁늘	-9.77104
▁선택할	-9.77177
이지만	-9.77334
버	-9.77342
▁일부를	-9.77345
▁개입	-9.77362
세요	-9.77428
처리	-9.77439
▁주의	-9.77458
▁남자	-9.77473
▁컨트롤러	-9.77505
▁어레이	-9.77572
병원	-9.77573
북	-9.77576
립	-9.77659
▁동기	-9.77668
▁못하고	-9.77694
▁소통	-9.77696
하신	-9.77731
▁관	-9.77753
▁펌프	-9.7776
▁것처럼	-9.77791
▁때까지	-9.77798
▁하락	-9.77887
성과	-9.77965
▁영향	-9.7801
▁반영	-9.78072
▁70	-9.78084
행위	-9.78145
런	-9.78201
▁버스	-9.78228
▁규정하고	-9.78291
▁알루미늄	-9.78294
▁넘	-9.78351
▁머리	-9.78407
▁부상	-9.78421
▁위원장	-9.7843
▁메인	-9.78463
▁포	-9.78496
▁적이	-9.78755
▁감정	-9.78794
▁시즌	-9.78809
▁본다	-9.78838
▁등과	-9.78924
▁포함하며	-9.79013
▁사유	-9.79071
▁골	-9.79113
▁나아가	-9.79138
▁제공하고	-9.79263
▁그것이	-9.79302
▁형태의	-9.79327
조사	-9.79344
▁보증	-9.79377
▁정치적	-9.79382
▁생성할	-9.79397
▁내년	-9.79432
▁300	-9.79436
기가	-9.79441
체계	-9.79478
하자	-9.79501
▁하나로	-9.7953
▁약물	-9.79571
▁이것	-9.79666
▁고유	-9.79677
▁원격	-9.79683
▁맞는	-9.79711
▁확진	-9.79739
▁색	-9.7977
▁부분에	-9.79853
▁복	-9.79856
▁조성물을	-9.79896
▁공사	-9.7994
층을	-9.79949
▁결과에	-9.80012
▁구입	-9.80115
▁점수	-9.80159
록	-9.80205
▁테스트	-9.80211
▁깊이	-9.80249
▁투입	-9.80273
▁상황에	-9.80319
왕	-9.80326
▁가까운	-9.80354
▁오브젝트	-9.80354
▁컴퓨팅	-9.80354
▁구역	-9.80378
▁이번에	-9.80381
▁보건	-9.80424
▁엄마	-9.80451
▁커피	-9.80466
▁실시간	-9.8048
▁제외한	-9.80489
▁적은	-9.80512
▁순환	-9.80518
▁이송	-9.80522
▁동의	-9.80565
▁결과가	-9.80671
▁비롯해	-9.80672
▁통화	-9.80752
▁계획이다	-9.80863
▁이중	-9.80871
▁위상	-9.80892
▁인권	-9.80898
▁섬	-9.81052
▁완벽	-9.81065
▁말씀	-9.81087
▁과세	-9.81118
▁생각합니다	-9.81248
▁균형	-9.81248
▁국회	-9.81342
▁남북	-9.81436
▁절연	-9.81467
있는	-9.81586
▁얼굴	-9.81649
▁용융	-9.81665
▁실리콘	-9.81665
▁부모	-9.81676
힌	-9.81686
장이	-9.81732
▁제공하기	-9.81738
▁픽셀	-9.81764
▁복지	-9.81768
▁알겠습니다	-9.81803
도시	-9.81819
▁다리	-9.81841
계약	-9.81937
(14)	-9.82003
가요	-9.82008
▁주셔서	-9.8201
▁교	-9.82032
▁중소기업	-9.82118
▁개혁	-9.82172
▁함수	-9.82217
▁전쟁	-9.82221
▁맞	-9.82257
▁타입	-9.82257
▁능력	-9.82275
▁불가능	-9.82281
▁고려하여	-9.82281
▁지점	-9.82303
량을	-9.82308
▁당뇨병	-9.82331
극	-9.8237
▁틀	-9.82487
▁노즐	-9.82499
▁미칠	-9.8252
(210)	-9.82545
▁버튼	-9.82606
▁하는데	-9.82625
퍼	-9.82774
▁헌법	-9.82783
▁총리	-9.82791
▁질문	-9.82796
거리	-9.8286
▁구비하는	-9.82878
기준	-9.82964
균	-9.82998
▁지역에	-9.82998
권을	-9.8302
▁공무원	-9.83046
▁혜택	-9.83214
▁적응	-9.83254
in	-9.83255
하였으며	-9.83331
▁플라스틱	-9.83353
▁존재하는	-9.83405
▁제재	-9.83464
적이고	-9.83508
▁지구	-9.83509
▁간에	-9.8351
▁대중	-9.83522
▁변동	-9.83555
▁매일	-9.83596
▁처분	-9.83603
▁창출	-9.83664
달	-9.83666
▁종이	-9.83797
▁경우에도	-9.83866
▁방침	-9.83964
er	-9.83966
▁반사	-9.84039
▁운용	-9.84041
▁찾는	-9.84065
▁사용한	-9.84104
▁긴	-9.84118
▁권한	-9.84142
▁이론	-9.84161
▁강력한	-9.84172
졌다	-9.84197
지도	-9.84323
▁저장된	-9.84331
▁상황이	-9.84428
▁구조물	-9.84437
▁기사	-9.84439
▁라	-9.84499
▁유의	-9.84512
▁스포츠	-9.84643
▁다수	-9.84665
▁동영상	-9.84692
▁단자	-9.84753
▁전기적	-9.84842
▁고객님	-9.84845
▁것인지	-9.84864
▁코일	-9.84869
▁LG	-9.84877
▁인상	-9.84918
▁바닥	-9.85005
사를	-9.85087
▁용접	-9.85095
▁설비	-9.85098
부의	-9.85128
▁영어	-9.85171
조에	-9.85174
월부터	-9.85175
돌	-9.85234
▁추	-9.85272
▁용	-9.85302
▁임금	-9.85339
▁이게	-9.85391
▁충돌	-9.85429
▁알려져	-9.85443
▁방사선	-9.85451
▁알고리즘	-9.85467
▁다소	-9.85558
▁주주	-9.85566
▁팬	-9.85597
담	-9.85618
▁저녁	-9.85638
화를	-9.8566
▁통일	-9.85682
▁잔	-9.85702
40	-9.85739
▁80	-9.85767
▁단지	-9.85767
▁야	-9.85782
▁나이	-9.85843
▁월	-9.85861
▁담	-9.85867
▁500	-9.85949
취	-9.8597
▁전부	-9.86057
▁착용	-9.86114
벽	-9.86116
▁해도	-9.86131
업체	-9.86152
▁피드백	-9.86174
항에	-9.86258
[	-9.86258
▁피해자	-9.86267
▁초과	-9.86301
▁벡터	-9.86309
▁마케팅	-9.86309
▁인하여	-9.86423
▁수준이	-9.86437
겠다	-9.86555
하기도	-9.86592
▁탈	-9.86614
▁국가의	-9.86657
▁방출	-9.86747
▁기여	-9.8676
▁만나	-9.86769
▁부하	-9.86792
▁극	-9.86821
▁일을	-9.8683
블	-9.86831
▁이용할	-9.86851
▁잡	-9.86871
▁했습니다	-9.86884
▁검찰	-9.8692
▁탐색	-9.86927
▁보기	-9.86932
(140)	-9.86954
▁심사	-9.86955
연구	-9.86958
▁코어	-9.87008
▁결정된	-9.8702
▁관하여	-9.8704
되었으며	-9.87063
▁심각한	-9.8711
~	-9.87135
▁행복	-9.87142
▁폐쇄	-9.87144
▁최대한	-9.87175
▁제기	-9.87183
▁귀	-9.87268
검사	-9.87304
▁있다면	-9.87351
▁다중	-9.87383
▁합	-9.87438
술	-9.87494
세기	-9.87542
▁진정	-9.87552
장을	-9.87558
▁평면	-9.87574
▁포함하여	-9.87578
메	-9.87582
▁허가	-9.87664
▁고분자	-9.87688
이야	-9.877
▁요즘	-9.87766
▁침해	-9.87906
h	-9.87997
▁핀	-9.88134
▁2000	-9.88147
▁윤	-9.88159
▁의식	-9.88213
▁부문	-9.88254
▁나온	-9.88275
테	-9.88286
▁설	-9.88313
▁할인	-9.88328
▁관통	-9.88339
▁구체적으로	-9.88353
보험	-9.8836
▁높게	-9.88447
▁찾고	-9.88447
▁와이어	-9.8845
▁있으나	-9.88463
▁스위칭	-9.88486
▁곳이	-9.88526
▁파이프	-9.88529
송	-9.88584
수단	-9.88651
▁상의	-9.88665
▁사람은	-9.88801
▁사실상	-9.88803
▁질량	-9.88808
겠습니다	-9.88834
▁시간에	-9.88899
▁나무	-9.89057
▁레	-9.89067
(6)	-9.89098
▁하다	-9.89102
▁젊은	-9.89159
▁관계가	-9.89215
▁안테나	-9.89216
조의	-9.89285
&	-9.8931
빈	-9.89326
50	-9.89345
▁평화	-9.89383
▁통상	-9.89418
▁치	-9.89452
▁흔	-9.89516
▁급	-9.89571
▁규칙	-9.89573
▁W	-9.89595
시에	-9.89631
▁시점	-9.89785
▁청	-9.89808
경제	-9.89817
▁당해	-9.89824
▁이용해	-9.89858
▁TV	-9.89876
▁홀	-9.89904
▁여러분	-9.89923
▁정리	-9.89953
▁보통	-9.90036
▁있을까요	-9.90038
▁주시기	-9.9006
▁발달	-9.9008
▁호주	-9.90131
▁주체	-9.90154
▁선박	-9.90159
▁유입	-9.90167
협회	-9.90197
▁맞아	-9.90241
▁빈도	-9.90347
▁여자	-9.90351
단체	-9.9044
▁위협	-9.90491
▁증가하고	-9.9052
▁배열	-9.90535
▁실시예에서	-9.90558
▁대책	-9.9056
5)	-9.90576
▁주고	-9.90689
▁종합	-9.90698
▁외에	-9.90746
침	-9.9082
▁의심	-9.90866
▁잠금	-9.90873
▁컬러	-9.90901
개발	-9.9091
▁지문	-9.90935
▁법인	-9.90951
▁나노	-9.90956
▁혈관	-9.90971
▁비율이	-9.91012
▁촉진	-9.9102
은행	-9.91066
▁적층	-9.91116
▁주기	-9.9113
▁최신	-9.91278
▁원자	-9.91452
▁사용자는	-9.91453
▁악화	-9.91461
이자	-9.91567
▁아이디어	-9.91619
▁강조	-9.91656
▁주소	-9.91699
▁항체	-9.91706
▁비슷한	-9.91764
al	-9.91829
▁계층	-9.91859
▁좋아하는	-9.91895
▁당사자	-9.91902
▁입법	-9.91931
▁뛰어	-9.91998
▁마지막으로	-9.92147
▁수학	-9.92241
▁연관된	-9.92252
그룹	-9.92273
▁하위	-9.92286
기로	-9.92352
▁프로	-9.9236
u	-9.92361
▁혈액	-9.92362
▁섹션	-9.92405
▁이상이	-9.92428
▁견해	-9.92477
▁미술	-9.92482
▁정확	-9.92493
▁가격이	-9.92509
▁못했다	-9.92583
구조	-9.92689
▁내일	-9.927
규	-9.92867
▁이하의	-9.92964
탈	-9.92973
▁말을	-9.92978
▁번호	-9.93011
▁테이블	-9.93042
▁광원	-9.93048
▁신장	-9.93085
▁제정	-9.93127
▁않기	-9.93154
▁코로나바이러스	-9.93159
▁밀봉	-9.93172
▁함	-9.93185
▁발현	-9.93191
▁화재	-9.93202
▁트럼프	-9.93252
▁건축	-9.93268
▁분배	-9.93346
▁처음으로	-9.93357
▁문제에	-9.93376
▁증상	-9.93402
▁점검	-9.93437
까요	-9.93471
▁공간을	-9.93485
▁생	-9.93609
▁사용자에게	-9.93656
▁경쟁력	-9.93663
커	-9.93783
▁접착	-9.93787
▁술	-9.93804
▁중요성	-9.93964
▁제품이	-9.9398
▁초음파	-9.94036
▁의지	-9.94037
▁탱크	-9.94048
▁버	-9.94059
▁펄스	-9.94059
▁인근	-9.94115
▁소유	-9.94153
▁취	-9.94222
▁영향력	-9.94256
▁인가	-9.94256
▁기업이	-9.94263
▁존재한다	-9.94358
▁개구부	-9.94363
▁증명	-9.94486
▁데이터에	-9.9454
력이	-9.94656
▁진료	-9.94689
▁성인	-9.94714
▁시장에서	-9.94821
▁로드	-9.94866
▁충분한	-9.94871
▁보여준다	-9.9488
개국	-9.94893
▁산출	-9.94915
▁면역	-9.94919
▁응답하여	-9.94936
▁들면	-9.95068
학교	-9.95068
▁효과적으로	-9.95069
▁환자들	-9.95119
▁참조	-9.95227
▁제조하는	-9.95323
x	-9.95329
▁주입	-9.95348
서비스	-9.95359
▁차원에서	-9.95364
▁영역에서	-9.95465
▁실천	-9.95466
▁제어하는	-9.95538
▁사태	-9.95602
▁현금	-9.95625
만이	-9.95627
▁n	-9.95634
▁문제점	-9.95725
▁연령	-9.95813
(13)	-9.95826
▁누	-9.95865
▁형성되어	-9.95905
▁넣어	-9.95906
▁아이들	-9.95945
▁기체	-9.95952
▁업데이트	-9.95956
사회	-9.96092
▁형성되는	-9.96109
▁열리는	-9.96136
▁면적	-9.96291
▁컴포넌트	-9.96312
▁학생들이	-9.96365
▁들어가	-9.96382
▁있어야	-9.96439
▁2011	-9.96452
▁양의	-9.96512
▁마찬가지로	-9.9656
▁대전	-9.96608
▁대상자	-9.9664
▁지속적인	-9.96683
▁즉시	-9.96738
▁변화에	-9.96739
▁화소	-9.96746
▁조례	-9.96747
▁맞춰	-9.96767
징	-9.96855
▁교육과정	-9.96877
부와	-9.96906
▁실내	-9.96976
▁제외	-9.96994
어야	-9.97054
▁석	-9.97157
▁결	-9.97169
▁더불어	-9.97252
▁마무리	-9.97253
▁재배	-9.97272
▁표본	-9.97378
▁일반적	-9.97415
칠	-9.9742
▁SK	-9.97472
▁유로	-9.97485
▁링크	-9.97559
▁둔	-9.97596
국가	-9.97634
▁선발	-9.97667
사의	-9.97674
▁우승	-9.97723
▁변화가	-9.97724
▁절	-9.97783
션	-9.97936
▁관련한	-9.9796
▁사용하기	-9.9804
▁대사	-9.98047
손	-9.98095
▁해소	-9.98147
▁원래	-9.98157
풍	-9.98252
주세요	-9.98291
▁배치되는	-9.98372
하였습니다	-9.9841
▁협약	-9.98418
▁지출	-9.98442
▁어제	-9.98452
▁철	-9.98466
▁쌍의	-9.9849
▁목록	-9.98509
▁속성	-9.98537
▁유동	-9.98564
▁얻는	-9.98616
▁부분이	-9.98646
▁구간	-9.98666
▁금리	-9.98678
▁연결되어	-9.98816
▁수립	-9.98963
(150)	-9.98985
▁폴리머	-9.99047
(21)	-9.99073
▁언론	-9.99087
▁롤러	-9.99115
▁차원	-9.99192
ing	-9.99213
▁갈등	-9.99256
▁활발	-9.9926
▁섭취	-9.99261
▁적합	-9.99413
▁시스템에	-9.99455
▁국	-9.99469
되게	-9.99471
▁내려	-9.99483
▁만족도	-9.99583
▁경험이	-9.99656
하려면	-9.99734
▁기법	-9.9976
▁손가락	-9.99795
▁첨부	-9.99795
▁선행	-9.99808
▁빈	-9.9982
▁끝	-9.99846
▁재산	-9.99921
▁c	-10.0001
케	-10.0002
▁오일	-10.0006
▁정신	-10.0007
팅	-10.0012
▁중이다	-10.002
▁지역에서	-10.0028
투자	-10.0035
▁빛	-10.0041
▁꿈	-10.0052
시스템	-10.0057
▁물리적	-10.006
▁주제	-10.0062
▁2020	-10.0072
뿐	-10.0077
현지시간	-10.0079
▁아버지	-10.0081
▁준	-10.0082
▁장애인	-10.0085
▁예시	-10.0086
▁산화	-10.0087
▁원료	-10.0093
▁문자	-10.0094
▁손해	-10.0115
▁강제	-10.0118
▁인수	-10.0122
▁용량	-10.0122
▁소식	-10.0123
▁진입	-10.0124
▁고객이	-10.0124
킹	-10.0129
됨에	-10.0133
▁완성	-10.0135
▁통로	-10.0135
됐	-10.014
▁특허	-10.0144
▁회수	-10.0144
▁직	-10.0148
▁즐길	-10.0153
▁찾을	-10.0153
▁음료	-10.0155
▁승리	-10.0157
▁외측	-10.0158
▁응용	-10.0159
▁점점	-10.0161
(40)	-10.0162
▁등급	-10.0163
▁LED	-10.0165
▁최선	-10.0173
▁관련해	-10.018
▁나와	-10.0181
▁광주	-10.0186
로운	-10.0187
▁구조체	-10.0188
▁생명	-10.0191
에선	-10.02
보호	-10.0201
▁조성물은	-10.0207
▁90	-10.0233
▁세라믹	-10.0236
▁출신	-10.0241
삼	-10.0244
착	-10.0246
▁영양	-10.0246
▁싶어	-10.025
▁아침	-10.025
▁확률	-10.0258
위를	-10.0258
▁전송할	-10.0261
▁메	-10.0262
▁기획	-10.0269
▁좋다	-10.027
▁해양	-10.028
▁없었	-10.0288
한테	-10.0288
▁허	-10.0289
▁지능	-10.029
▁답변	-10.0294
▁도어	-10.0299
▁기능이	-10.0302
량이	-10.0302
▁보정	-10.0304
▁인자	-10.0306
▁약속	-10.0311
▁논문	-10.0318
▁위원	-10.032
법에	-10.0321
▁조기	-10.0322
▁취지	-10.0322
▁생체	-10.0324
리그	-10.0329
▁캐릭터	-10.0329
▁클라이언트	-10.0329
▁부가	-10.0334
▁점은	-10.0336
▁국립	-10.0339
합	-10.0339
▁대해서도	-10.0341
▁경고	-10.0346
▁실패	-10.0351
례	-10.0357
▁범위를	-10.0363
▁보도	-10.0367
(8)	-10.0373
▁무게	-10.0373
▁차례	-10.0374
▁제어기	-10.0374
▁U	-10.0378
▁최적	-10.0385
스타	-10.0393
로부터의	-10.0393
방식	-10.04
촌	-10.0411
▁의해서	-10.0412
▁군사	-10.0413
▁비용이	-10.0414
▁효율성	-10.0415
▁배제	-10.0415
17	-10.0417
▁안정적	-10.0418
▁논란이	-10.0422
▁재판	-10.0424
▁오류	-10.0426
▁집행	-10.0431
▁사망자	-10.0444
▁점도	-10.0447
절차	-10.0453
▁어셈블리	-10.0454
km	-10.0457
인가요	-10.0477
▁합금	-10.0477
계획	-10.0479
대상	-10.0486
▁시에	-10.049
▁청년	-10.049
▁생존	-10.0493
▁판독	-10.0496
▁비중이	-10.0499
츠	-10.0504
▁보완	-10.0507
▁절반	-10.0509
(220)	-10.0511
▁남아	-10.0511
▁사는	-10.0512
▁숨	-10.0514
▁클라우드	-10.0515
▁한쪽	-10.0516
월에	-10.0522
▁구성하는	-10.0531
▁고체	-10.0533
▁취업	-10.0535
▁도전성	-10.0535
▁폴리	-10.0536
▁접착제	-10.0538
▁먹는	-10.0538
▁대로	-10.0539
▁환자에서	-10.0541
▁대상이	-10.0551
▁m	-10.0552
▁통증	-10.0558
▁지금은	-10.0565
▁정책을	-10.0569
▁할당	-10.0575
상을	-10.0578
▁선물	-10.0586
곳	-10.0587
▁제주	-10.059
▁않으면	-10.0592
▁유출	-10.06
▁2008	-10.0603
▁다르게	-10.0604
▁인천	-10.0606
▁넘어	-10.0607
농	-10.0608
수가	-10.0608
졌	-10.0609
▁전날	-10.0611
▁가동	-10.0611
▁분쟁	-10.0612
▁예상된다	-10.0613
가능한	-10.0614
려고	-10.0617
▁살펴보면	-10.0618
▁도면	-10.0619
▁점차	-10.0629
▁단어	-10.0633
▁평가를	-10.0634
없이	-10.0641
싱	-10.066
기구	-10.0661
습	-10.0668
▁뒤에	-10.0673
▁생산성	-10.0674
이면	-10.0683
▁아울러	-10.0691
▁있으므로	-10.0691
▁취급	-10.0692
▁무슨	-10.0692
▁휴대	-10.0696
회의	-10.0697
▁연간	-10.0697
▁2012	-10.0698
▁접합	-10.0703
▁아들	-10.0705
(22)	-10.0709
▁답	-10.0715
▁전개	-10.0715
6)	-10.0719
▁부위	-10.072
▁만한	-10.0723
이라며	-10.0723
mm	-10.0723
▁따	-10.0723
▁분자	-10.0737
▁재고	-10.0738
▁집에	-10.0742
▁외에도	-10.0744
▁관측	-10.0761
▁잠	-10.0761
▁일정한	-10.0763
▁응	-10.0766
▁그들이	-10.0773
▁융합	-10.078
▁슬라이딩	-10.0784
▁갖춘	-10.0784
▁날짜	-10.0784
▁유사	-10.0786
▁PC	-10.0789
▁감염증	-10.0789
율이	-10.0791
▁되었습니다	-10.0791
▁권력	-10.0793
▁세금	-10.0794
들도	-10.0795
▁알려진	-10.0796
12	-10.0801
진다	-10.0806
애	-10.0806
▁예비	-10.0807
부재	-10.0807
▁지침	-10.0814
▁선택적으로	-10.0817
▁포트	-10.0817
▁누적	-10.082
▁배경	-10.0824
▁축소	-10.0824
▁O	-10.0826
▁보강	-10.0826
▁꽃	-10.0832
▁배선	-10.0834
▁구리	-10.0844
▁선호	-10.085
세포	-10.0851
▁10%	-10.0854
▁민	-10.0855
▁사업자	-10.0855
찬	-10.0856
핑	-10.0865
▁연관	-10.0866
▁[	-10.0866
▁프로세싱	-10.0877
▁베어링	-10.0877
시킴으로써	-10.0877
▁용매	-10.0878
했는데	-10.0878
▁하나는	-10.088
▁불편	-10.088
렌	-10.0881
올	-10.0881
비용	-10.0882
예요	-10.0882
였던	-10.0884
신호	-10.0885
▁발효	-10.0887
▁150	-10.0891
▁권	-10.0898
▁밤	-10.0903
▁벌	-10.0904
▁특수	-10.0912
▁목적은	-10.0915
▁부분적으로	-10.0921
▁비교하여	-10.0923
▁각도	-10.0928
하므로	-10.093
▁봐	-10.0937
▁분석한	-10.0937
▁사용된다	-10.0953
라도	-10.0956
패	-10.0964
▁기부	-10.0965
▁이슈	-10.0966
▁왼쪽	-10.0971
▁엄청	-10.0972
(6	-10.0972
▁온실가스	-10.0975
▁모습이	-10.098
▁옵션	-10.0989
▁상당한	-10.0996
주는	-10.0996
▁주도	-10.1001
▁산정	-10.1002
(16)	-10.1005
▁연결하는	-10.101
▁능력을	-10.1012
▁측은	-10.1027
▁깊은	-10.1029
▁내측	-10.1032
경기	-10.1033
▁도착	-10.1035
▁춤	-10.1035
▁몸체	-10.1045
▁제조업	-10.1047
▁눈에	-10.105
▁유치	-10.1057
▁실린더	-10.1067
▁분야에서	-10.1073
▁2010	-10.1075
▁조립	-10.1078
▁새롭	-10.1081
시켰다	-10.1083
11	-10.1086
▁제공되는	-10.1091
언	-10.1098
▁파장	-10.11
했으나	-10.11
▁근로자	-10.1102
죄	-10.1106
▁것이며	-10.1112
▁축구	-10.1112
소득	-10.1115
▁최소화	-10.1117
여명	-10.1125
▁본격적	-10.1131
▁공동체	-10.1132
▁현상이	-10.1141
▁장면	-10.1157
▁세상	-10.1157
▁숫자	-10.1163
▁급격	-10.1163
▁신문	-10.1165
▁마련된	-10.1167
▁배치되어	-10.1167
▁넘는	-10.1169
▁블록체인	-10.117
평가	-10.1171
▁2013	-10.1176
▁따르	-10.1177
▁스타일	-10.1177
▁파괴	-10.1178
▁연주	-10.1182
▁계정	-10.1184
▁긍정적	-10.1186
▁50%	-10.1189
름	-10.1192
▁전파	-10.1195
▁시스템이	-10.12
▁이달	-10.1203
▁가압	-10.1205
사는	-10.1209
▁중요	-10.1216
원이	-10.1221
로서의	-10.1222
▁비상	-10.1234
▁태	-10.1242
▁필요로	-10.1249
▁형식	-10.1252
▁구성요소	-10.1254
▁전문가들	-10.1254
▁의존	-10.1256
▁결론	-10.1257
▁출발	-10.1258
▁유효	-10.1261
▁논리	-10.1261
▁없어요	-10.1271
▁산화물	-10.1276
▁내용은	-10.1294
필	-10.1297
▁공시	-10.1303
▁간격	-10.1306
▁한정	-10.1309
지에	-10.1314
14	-10.1324
▁지위	-10.1333
▁안정성	-10.134
▁당연	-10.1352
▁민법	-10.1359
▁내구성	-10.136
▁바람직하다	-10.136
▁긴급	-10.136
▁나타나	-10.1362
총	-10.1367
자료	-10.1372
▁태양	-10.1373
▁드리겠습니다	-10.1374
re	-10.1379
공사	-10.1381
▁등에서	-10.1383
▁때마다	-10.1387
족	-10.139
▁밴드	-10.1392
▁수평	-10.1394
▁설치된	-10.1394
▁불안	-10.1398
▁보여주는	-10.14
▁어머니	-10.1411
알	-10.1414
김	-10.1415
▁저에게	-10.1415
▁삼성	-10.1418
▁다양	-10.1421
▁장점이	-10.1425
▁경향	-10.1426
▁주사	-10.1434
▁일치	-10.1442
▁사용하고	-10.1444
(7)	-10.1447
▁회계	-10.1456
▁데이터는	-10.1463
(10	-10.1464
▁교과서	-10.1464
▁팽창	-10.1466
명은	-10.1467
▁좋아요	-10.1468
▁때문입니다	-10.147
▁대량	-10.1473
▁후속	-10.1474
▁무대	-10.148
▁형성하고	-10.148
▁먹고	-10.1482
▁관절	-10.1483
만으로	-10.1486
▁포함되는	-10.1489
공간	-10.1491
▁성적	-10.1493
▁간주	-10.1499
▁나타나는	-10.15
▁상위	-10.1505
▁충족	-10.1508
▁건강한	-10.152
▁전용	-10.1523
▁통지	-10.1526
▁발표한	-10.153
▁IT	-10.1535
장에서	-10.1545
▁지배	-10.1546
▁쌍	-10.1549
으로써	-10.1551
_	-10.1552
▁하면서	-10.1553
▁캐리어	-10.1557
▁짧은	-10.1557
(101)	-10.1559
▁경우는	-10.1559
이기	-10.1564
▁사료	-10.1567
▁공부	-10.1568
▁세척	-10.1575
▁드라마	-10.1576
▁먹을	-10.1578
▁필드	-10.1584
▁판단된다	-10.1585
▁보니	-10.1586
▁바이오	-10.1587
▁서류	-10.1591
▁실무	-10.1603
▁홍	-10.1607
드립니다	-10.1608
▁드릴	-10.161
▁주장했다	-10.161
▁부인	-10.1614
▁어디	-10.1615
분석	-10.1626
▁현재까지	-10.1629
▁32	-10.1629
▁나오는	-10.163
▁드	-10.1644
▁조항	-10.1646
▁기술이	-10.1648
▁수납	-10.1648
▁대만	-10.1655
▁버퍼	-10.1658
▁냄새	-10.1658
▁윈도우	-10.1658
▁회피	-10.1659
▁편집	-10.1661
▁협의	-10.1666
▁이루어지고	-10.1668
▁증가하는	-10.1673
악	-10.1673
▁에지	-10.1677
▁이처럼	-10.1684
▁주관	-10.1684
▁기어	-10.1687
▁균일	-10.1691
운영	-10.1695
▁논	-10.17
(7	-10.1702
▁부정	-10.1704
▁부서	-10.1704
혈	-10.1709
▁주위	-10.1713
▁유형의	-10.1715
새	-10.1717
▁성립	-10.172
우리	-10.1721
▁별도로	-10.1725
▁공원	-10.1727
▁장식	-10.1732
k	-10.1735
▁증상이	-10.1736
▁순서	-10.1741
▁단면	-10.1744
▁외교	-10.1744
▁순위	-10.1746
▁사이즈	-10.1753
▁도포	-10.1758
▁객실	-10.176
방법	-10.1761
▁운반	-10.1761
▁출구	-10.1763
▁연구에	-10.1764
▁창업	-10.1767
▁환경에서	-10.1768
▁등장	-10.177
▁인프라	-10.1773
▁많았다	-10.1776
▁p	-10.1779
다면	-10.178
▁바디	-10.1784
(15)	-10.1784
▁기후변화	-10.1794
▁쓰	-10.1806
▁경력	-10.1809
▁경화	-10.1817
금융	-10.1821
μ	-10.1824
▁인물	-10.1824
▁지정된	-10.1825
▁효과적인	-10.1826
▁세대	-10.1828
▁회	-10.1831
▁인접한	-10.1832
▁가로	-10.1835
▁경향이	-10.1838
▁본인	-10.1842
▁구성원	-10.1845
른	-10.1846
▁악	-10.1851
개를	-10.1854
▁열어	-10.1859
▁붙	-10.1863
▁판례	-10.1864
▁알림	-10.1869
▁35	-10.1869
▁타고	-10.187
▁않아요	-10.1874
▁처벌	-10.1876
▁코딩	-10.1893
▁유명	-10.1898
▁유지하는	-10.1902
▁시작했다	-10.1907
▁앞에서	-10.1907
15	-10.1908
▁위험이	-10.191
▁선형	-10.1911
들로	-10.1913
쳐	-10.1917
▁준다	-10.1919
전자	-10.1922
▁만들고	-10.1925
홀	-10.1925
대를	-10.1929
▁청소	-10.1931
▁알게	-10.1936
▁미국에서	-10.1942
▁서비스에	-10.1945
▁분석하였다	-10.1947
▁센싱	-10.1951
학적	-10.1952
▁이란	-10.1955
▁이곳	-10.1956
▁화합물을	-10.1958
▁고민	-10.1963
▁아름다	-10.1966
▁넓은	-10.1967
▁조각	-10.1969
▁이웃	-10.197
▁편안	-10.197
▁스피커	-10.1971
▁안전한	-10.1974
▁있었습니다	-10.1975
▁토대로	-10.1978
더라도	-10.1979
▁뉴욕	-10.1984
▁알코올	-10.1989
▁겨울	-10.1993
▁일종	-10.2004
▁해결하기	-10.2006
▁재개	-10.2007
▁속에	-10.2012
(5	-10.2015
자로	-10.2019
▁펀드	-10.2021
▁명시	-10.2022
익	-10.2026
▁혐의	-10.2029
▁연소	-10.2029
▁밀도	-10.203
▁뉴	-10.2034
▁링	-10.2036
됨	-10.2046
방향	-10.2049
▁서울시	-10.205
▁발굴	-10.2055
▁그게	-10.2061
▁자유롭	-10.2068
▁심리	-10.2068
혜	-10.2071
▁상대로	-10.2073
▁형성한다	-10.2073
▁진술	-10.2073
▁원활	-10.2074
▁토크	-10.2075
▁최소한	-10.2077
▁경사	-10.2077
결정	-10.2081
▁스프링	-10.2087
▁강판	-10.21
▁일상	-10.2103
분기	-10.2109
▁사이클	-10.2111
▁앞에	-10.2112
조제	-10.2113
세대	-10.2122
▁안보	-10.2123
라인	-10.2127
▁특	-10.2129
▁현행	-10.2132
▁효율적인	-10.2136
하시면	-10.2137
페	-10.215
▁국가들	-10.2152
cm	-10.2154
이기도	-10.2155
▁좋을	-10.2157
플	-10.2157
▁진로	-10.216
▁혼합물	-10.2163
▁하더라도	-10.2166
▁통계적	-10.2166
▁그렇지	-10.2167
책	-10.2168
▁상태에	-10.2169
▁호의	-10.2174
▁저장할	-10.2177
거래	-10.2178
・	-10.2179
▁타겟	-10.2179
▁아이콘	-10.2179
▁삼성전자	-10.2179
▁레이어	-10.218
▁시장에	-10.2183
▁수신하는	-10.2184
▁사상	-10.2184
w	-10.2185
▁돼요	-10.2187
▁밀	-10.2188
▁이탈리아	-10.2189
▁선언	-10.2191
▁투표	-10.2194
▁전도성	-10.2198
값을	-10.2204
▁쉽지	-10.2206
▁곡선	-10.2209
견	-10.2216
▁발생한다	-10.2216
▁감독이	-10.2219
▁바람직하게는	-10.222
▁교차	-10.2232
▁차지하는	-10.2233
훈	-10.2246
▁전망이	-10.2247
주셔서	-10.2254
▁목표로	-10.2259
부는	-10.2266
▁관점	-10.2267
▁상태가	-10.2275
▁이내	-10.2276
▁이것이	-10.2277
다른	-10.2277
▁불리는	-10.2277
▁도와	-10.2281
▁인접	-10.2285
▁한반도	-10.2286
▁키워드	-10.2287
▁상단	-10.2289
▁진공	-10.229
▁사용한다	-10.2293
▁연극	-10.2299
▁그래픽	-10.2303
▁이외	-10.2303
회사	-10.2305
▁예컨대	-10.2306
(32)	-10.2309
▁업계	-10.2309
▁아이템	-10.2311
▁만성	-10.2312
▁사이트	-10.2312
▁않았	-10.2315
▁떠나	-10.2319
▁사용된	-10.2322
▁그래도	-10.2323
원은	-10.2334
▁상에서	-10.2342
황	-10.2344
▁완전	-10.2346
▁꾸준	-10.2346
▁박스	-10.236
▁별로	-10.2367
딩	-10.2368
▁생각이	-10.2379
▁정렬	-10.238
▁이사	-10.239
▁스페인	-10.2395
▁느낄	-10.2395
(400)	-10.2395
▁개설	-10.2396
Q	-10.2401
▁운영하는	-10.2409
▁디스크	-10.241
▁채용	-10.2411
▁기온	-10.2414
▁필요할	-10.2415
과정	-10.2415
해도	-10.2421
▁범위에서	-10.2431
▁다르다	-10.2437
▁펜	-10.2437
▁가서	-10.2439
▁레스토랑	-10.244
▁유용한	-10.2445
▁바람	-10.2457
▁좌우	-10.2461
▁생각해	-10.2461
▁축적	-10.2465
▁조사를	-10.2469
▁활용한	-10.2474
▁기준을	-10.2474
▁사정	-10.2485
항의	-10.2486
하다고	-10.249
소극	-10.2496
분의	-10.2496
▁상황이다	-10.2503
▁식당	-10.2504
▁친환경	-10.2506
▁탑재	-10.2506
▁바다	-10.2509
▁절감	-10.2509
16	-10.2512
▁신발	-10.2513
(102)	-10.2513
▁유네스코	-10.2517
▁조달	-10.2521
▁분야에	-10.2521
7)	-10.2524
존	-10.2526
▁사항이	-10.2527
▁정한	-10.2528
▁신선	-10.253
글	-10.2531
▁대응되는	-10.2535
▁현황	-10.2535
▁육성	-10.2538
7%	-10.2539
▁루	-10.2542
▁치료에	-10.2542
▁공구	-10.2544
▁끈	-10.2546
▁고기	-10.2553
▁돌출	-10.2554
▁관광객	-10.2557
셔	-10.2559
결과	-10.2561
▁소화	-10.2569
▁결합된	-10.2578
▁덜	-10.2581
▁근로	-10.2582
▁선수들	-10.2584
▁x	-10.2586
▁나타낸	-10.2587
▁밖에	-10.2598
▁성공적	-10.2602
▁작	-10.2602
▁0.1	-10.2609
▁신용	-10.261
▁피해를	-10.2616
▁미세먼지	-10.2616
▁청와대	-10.2616
▁엄격	-10.2616
▁피스톤	-10.2616
▁운행	-10.2617
▁2007	-10.262
▁개편	-10.2621
▁회신	-10.2623
(24)	-10.2633
▁신호에	-10.2639
▁단계에서	-10.2641
▁정체성	-10.2643
▁위치에서	-10.2644
▁정해진	-10.2645
▁서명	-10.2645
▁회사에	-10.2646
▁계기	-10.2649
▁함량	-10.2649
▁편리	-10.2655
▁접수	-10.2656
▁주시면	-10.2659
▁통신부	-10.2661
▁전공	-10.2671
▁선생님	-10.2672
식을	-10.2674
▁생각을	-10.2676
▁회원국	-10.2696
쿠	-10.2699
▁무엇보다	-10.27
▁생긴	-10.2706
▁홈페이지	-10.271
법인	-10.2714
▁그때	-10.2714
▁심의	-10.2719
▁처리부	-10.2725
슨	-10.2726
톤	-10.2727
▁내놓	-10.2728
▁높았다	-10.2728
▁놓고	-10.2728
▁횟수	-10.2728
▁갑자기	-10.2728
▁확신	-10.2729
▁끝난	-10.273
▁지원하는	-10.2731
▁그렇다면	-10.2732
▁보이지	-10.2739
률이	-10.2742
▁지분	-10.2747
▁양호	-10.2748
▁표시되는	-10.2751
▁후방	-10.2752
▁나타난다	-10.2761
육	-10.2765
이므로	-10.277
▁이식	-10.2771
▁자국	-10.2772
▁항공	-10.2772
▁기상	-10.2778
▁증대	-10.2782
▁동료	-10.2785
▁(1)	-10.2794
▁담당자	-10.2795
▁e	-10.2801
▁실질적	-10.2802
80	-10.2808
▁본사	-10.2809
▁전후	-10.2814
▁염증	-10.2832
음을	-10.2833
▁싶다	-10.2834
▁간호	-10.2841
▁높일	-10.2842
▁앞두고	-10.2842
▁홍콩	-10.2844
▁2009	-10.2845
▁망	-10.2845
▁뉴스	-10.2845
▁오늘날	-10.2846
▁스테이지	-10.2847
▁롯데	-10.285
▁자치	-10.2851
▁준수	-10.2851
▁나타내고	-10.2852
조직	-10.2852
▁쓰레기	-10.2855
▁Y	-10.2865
▁민족	-10.2868
▁신뢰성	-10.2869
▁수요가	-10.2872
▁왕	-10.2875
라면	-10.2884
발전	-10.2886
▁거부	-10.2887
▁만들기	-10.2892
▁사용하지	-10.2895
▁채택	-10.2897
▁수행한다	-10.2899
▁공간이	-10.2899
했	-10.2901
▁간호사	-10.2908
▁초래	-10.2909
▁무용	-10.291
°	-10.2912
▁이상인	-10.2913
누	-10.2916
▁것이고	-10.2918
▁촬상	-10.2921
나무	-10.2923
▁기업들	-10.2926
▁대법원	-10.293
스터	-10.2931
▁연결되는	-10.2941
▁120	-10.2941
널리	-10.2955
▁투	-10.2956
▁매트릭스	-10.2957
영역	-10.2958
▁협조	-10.2968
▁활용하여	-10.2975
▁기본적으로	-10.2979
수를	-10.298
▁아니면	-10.2981
▁마이크로	-10.2982
▁분사	-10.2996
▁다이	-10.3007
▁생각한다	-10.3007
▁최근에는	-10.3009
▁것보다	-10.3011
▁따로	-10.3012
▁떨어진	-10.3012
충	-10.3016
으나	-10.3016
대학	-10.3023
▁위탁	-10.3026
대표	-10.3033
▁과일	-10.3034
▁암호화	-10.3037
▁전이	-10.3039
▁되도록	-10.3039
▁계	-10.3042
▁원리	-10.3049
▁순간	-10.3051
▁벗어나	-10.3054
▁직장	-10.3056
▁설치되어	-10.3057
거든요	-10.3061
▁곳에서	-10.3072
▁국내에서	-10.3072
▁유압	-10.3073
▁커넥터	-10.3073
▁삭제	-10.3073
▁타이밍	-10.3073
▁홀더	-10.3075
▁당신에게	-10.3075
▁주가	-10.3075
▁종래	-10.3076
▁기름	-10.3076
▁특정한	-10.3077
90	-10.3077
▁절대	-10.3082
▁불확실성	-10.3088
▁연결된다	-10.3092
▁초대	-10.3098
▁그에	-10.31
▁수수료	-10.3103
▁도달	-10.3111
려면	-10.3111
▁연동	-10.3114
▁있어서의	-10.3115
정보를	-10.3117
▁작년	-10.3121
▁세계적으로	-10.3127
▁받는다	-10.313
▁65	-10.3133
▁맛이	-10.3148
▁회원	-10.3155
▁안에서	-10.3156
▁요구하는	-10.3158
▁정당	-10.3158
▁가능할	-10.3158
▁연결될	-10.316
Y	-10.3167
박물관	-10.3167
is	-10.3169
▁중첩	-10.3172
▁오랜	-10.3176
잖아	-10.3177
▁주제로	-10.3183
냐	-10.3188
▁높고	-10.3191
▁영향이	-10.3191
▁계측	-10.3192
▁감축	-10.3194
▁유래	-10.3195
▁신설	-10.3199
▁기념	-10.32
관계	-10.3202
▁성분을	-10.3202
▁품목	-10.3206
▁복원	-10.3207
▁풍	-10.321
▁집합	-10.3211
▁규정에	-10.3216
▁회사가	-10.3216
▁양도	-10.3217
▁우주	-10.3218
협	-10.3221
에만	-10.3224
▁폐기물	-10.3229
▁미국과	-10.323
▁실적	-10.3235
낸	-10.3242
▁먹어	-10.3254
독	-10.3257
▁시작한	-10.3258
액을	-10.3272
▁거주	-10.3275
▁공급하는	-10.3276
둔	-10.3279
벌	-10.3282
▁요법	-10.3284
▁입력부	-10.3286
대가	-10.3287
효과	-10.3291
빙	-10.3297
▁형광	-10.3299
▁상관	-10.3303
했기	-10.3305
▁측에	-10.3307
▁굉장	-10.331
▁하드웨어	-10.331
▁파견	-10.3311
▁어린	-10.3311
▁신경망	-10.3312
▁관해	-10.3313
일에	-10.3314
▁관여	-10.3315
▁단축	-10.3315
▁고속	-10.3317
운동	-10.332
▁법정	-10.3322
▁설명하기	-10.3322
▁경과	-10.3323
▁담배	-10.3326
▁사무	-10.3326
▁임시	-10.3328
▁알아	-10.3328
▁복잡한	-10.333
▁유일한	-10.3336
▁손님	-10.3338
게요	-10.3341
▁한국에	-10.3346
▁마음에	-10.3347
▁배상	-10.3347
밀	-10.3351
▁부정적인	-10.3355
▁수준에	-10.3361
▁많아	-10.3364
(9)	-10.3371
법을	-10.3371
기능	-10.3371
▁KT	-10.3375
▁33	-10.3378
▁시스템에서	-10.3379
잖아요	-10.338
▁네가	-10.338
▁밥	-10.3383
▁투어	-10.3388
▁부부	-10.3388
▁제시한	-10.3392
몰	-10.3397
▁자격	-10.3398
▁내장	-10.3403
▁과정이	-10.3412
▁여름	-10.3414
▁박사	-10.342
▁기각	-10.342
▁액정	-10.3422
▁근육	-10.3426
▁용어	-10.3429
▁조립체	-10.3429
▁간섭	-10.343
ᆞ	-10.343
▁웨이퍼	-10.3431
▁근접	-10.3431
▁밀접	-10.3431
▁상호작용	-10.3431
▁벨트	-10.3431
▁개폐	-10.3432
▁출전	-10.3434
▁활동이	-10.3435
옥	-10.3436
▁인하	-10.3436
자원	-10.3445
▁갖추고	-10.3445
▁의류	-10.3446
▁야기	-10.3448
▁독립적으로	-10.3452
▁부채	-10.3453
▁의료진	-10.3453
▁디스플레이부	-10.3453
▁에어	-10.3456
▁수용체	-10.3456
(50)	-10.3458
▁곡	-10.347
▁가수	-10.3472
▁값이	-10.3482
▁투자자	-10.3483
▁연구팀	-10.3484
▁격	-10.3486
▁비행	-10.3489
▁하는지	-10.3489
▁임대	-10.3489
서는	-10.3494
▁무리	-10.3495
▁0.5	-10.3504
공원	-10.3505
사항	-10.351
18	-10.3512
▁이루어진다	-10.3513
정부	-10.3517
시기	-10.352
읍	-10.3528
한다면	-10.353
▁베	-10.3531
▁각국	-10.3533
▁원형	-10.3535
능력	-10.3537
▁사무실	-10.3538
▁박막	-10.3544
지지	-10.3551
▁압박	-10.3553
▁냉장고	-10.3558
▁발생했다	-10.356
▁줍니다	-10.3561
▁화장품	-10.3561
▁주거	-10.3562
▁땅	-10.3565
▁작가	-10.3567
▁100%	-10.357
있다	-10.3573
▁유도체	-10.3575
▁난민	-10.3578
▁물류	-10.3579
▁기지국	-10.3583
▁증진	-10.3583
▁조리	-10.3585
▁과정에	-10.3586
호선	-10.359
▁기초로	-10.3593
▁매개	-10.3594
▁확인해	-10.3598
▁주민들	-10.3599
▁서울특별시	-10.3599
▁지닌	-10.3601
▁혐의로	-10.3603
봐	-10.3606
100	-10.3609
▁질서	-10.3612
▁특성에	-10.3615
▁흐르는	-10.3617
월까지	-10.362
▁개수	-10.363
▁직후	-10.3631
▁일주일	-10.3638
치를	-10.3653
▁살아	-10.3653
▁사전에	-10.3673
고요	-10.3673
▁42	-10.3674
▁멀티	-10.3677
▁이루어질	-10.3677
▁일련	-10.3681
▁유저	-10.3682
▁인도네시아	-10.3682
▁관리자	-10.3683
▁문항	-10.3683
▁프리미엄	-10.3684
▁지각	-10.3685
▁잉크	-10.3693
▁여지	-10.3693
요소	-10.3695
▁경남	-10.3696
▁딱	-10.3698
▁납부	-10.3703
▁중재	-10.3707
25	-10.3718
▁원심	-10.3725
▁위치하는	-10.3727
▁순수	-10.3727
▁가변	-10.3728
▁롤	-10.3728
▁장점	-10.3728
▁발생하지	-10.3734
▁지지체	-10.3742
▁딸	-10.3755
택	-10.376
▁기계적	-10.376
입니까	-10.3761
▁그건	-10.3763
▁세탁	-10.3766
조차	-10.3766
▁의회	-10.3768
▁대기업	-10.3775
업계	-10.378
▁단계와	-10.3783
▁나타	-10.3785
년이	-10.3786
위원	-10.3786
▁들어서	-10.3788
▁곳에	-10.3793
▁집에서	-10.3794
▁라벨	-10.38
▁캐나다	-10.3801
▁프로파일	-10.3801
▁마스터	-10.3802
▁듣고	-10.3808
▁택시	-10.3808
▁간편	-10.3811
▁직원들	-10.3811
▁관계에	-10.3813
▁나도	-10.3814
▁민주주의	-10.3816
▁닫	-10.3818
▁매칭	-10.3819
▁뿌리	-10.3822
▁번역	-10.3823
▁설치되고	-10.3825
▁성별	-10.3826
▁양식	-10.3826
원을	-10.3827
▁진행된	-10.3832
▁mm	-10.3835
▁시청	-10.3837
▁배당	-10.3838
▁날씨	-10.3838
▁코스	-10.3849
▁이력	-10.3852
▁협정	-10.3859
▁확실	-10.3864
▁듯	-10.3868
지수	-10.3869
▁소장	-10.3873
▁빼	-10.3875
▁보유한	-10.3887
▁디바이스는	-10.3893
▁실수	-10.3895
▁정비	-10.3896
▁전사	-10.3899
or	-10.3902
▁신속	-10.3904
▁증폭	-10.3907
▁학습자	-10.3908
숙	-10.391
kg	-10.3911
▁낸	-10.3911
%,	-10.3912
▁논란	-10.3924
▁토론	-10.3924
▁좋지	-10.3927
▁컨테이너	-10.3927
▁호스트	-10.3931
(160)	-10.3933
집니다	-10.3935
▁올라	-10.3937
▁사과	-10.3943
움	-10.3943
▁생태계	-10.3945
▁폭력	-10.3948
▁인기가	-10.3948
▁유지하고	-10.395
▁음향	-10.395
▁주차	-10.395
천만	-10.3951
▁목재	-10.3951
▁갱신	-10.3961
▁회담	-10.3969
▁자가	-10.3974
클	-10.3976
▁프리	-10.398
60	-10.3986
▁패	-10.3989
▁현장에서	-10.3997
▁양상	-10.4
▁모여	-10.4003
▁참여한	-10.4008
▁세계에서	-10.4012
▁보이	-10.4016
▁기업은	-10.4017
▁적용할	-10.4023
24	-10.4028
원의	-10.4032
▁매장	-10.4035
반응	-10.4036
▁담보	-10.4037
힐	-10.4039
▁원인이	-10.404
▁사실이	-10.404
코로나	-10.4043
8)	-10.4043
▁그래프	-10.4043
▁죄송합니다	-10.4045
▁상업	-10.4051
▁샤프트	-10.4056
▁도메인	-10.4056
▁소셜	-10.4056
▁부탁	-10.4056
▁졸업	-10.4056
▁발언	-10.4057
▁사이버	-10.4057
▁방전	-10.4059
▁선별	-10.4062
▁가중치	-10.4063
학습	-10.4063
때	-10.4063
▁확실히	-10.4063
▁부피	-10.4064
▁파트너	-10.4068
▁부정적	-10.4071
▁하나에	-10.4072
▁SNS	-10.4073
▁맞게	-10.4074
상태	-10.4078
▁기대된다	-10.408
▁감염병	-10.4083
▁출장	-10.4084
▁잡아	-10.4086
슬	-10.4088
▁쓸	-10.4088
▁한국인	-10.4088
▁스트림	-10.4098
▁수준으로	-10.4105
▁폐지	-10.4111
군요	-10.4111
▁보드	-10.4112
▁활동에	-10.4115
걸	-10.4117
▁학부모	-10.4118
▁있었고	-10.4119
▁발표했다	-10.4119
하면서도	-10.4121
번째	-10.4123
▁운	-10.4125
▁환불	-10.413
객	-10.413
▁장치와	-10.4133
시길	-10.4137
70	-10.4138
▁방해	-10.4144
▁연방	-10.4151
▁중합	-10.4152
▁일으키	-10.4152
▁가입자	-10.4156
▁마치	-10.4168
▁발병	-10.4168
▁먹	-10.4168
an	-10.4172
자와	-10.4172
▁임신	-10.4173
▁수분	-10.4179
▁좁	-10.4183
▁분양	-10.4184
▁시뮬레이션	-10.4185
▁프로토콜	-10.4185
▁방식이	-10.4186
(180)	-10.4186
▁나중에	-10.4187
▁배달	-10.4187
▁현저	-10.4188
▁토양	-10.4188
▁액추에이터	-10.4188
▁환	-10.4191
▁상관관계	-10.4191
아니	-10.4192
▁브레이크	-10.4194
▁버전	-10.4199
▁문재인	-10.4202
▁얻어진	-10.4206
▁여부에	-10.4207
▁민감	-10.4208
▁중국이	-10.4208
▁공정과	-10.4211
▁고려해	-10.4214
(18)	-10.4217
▁심장	-10.422
▁처리하는	-10.4221
(31)	-10.4221
한국	-10.4225
▁문제로	-10.4228
▁d	-10.4229
▁직선	-10.4236
▁나누어	-10.4239
▁집적	-10.4241
▁잡고	-10.4242
환자	-10.4243
▁사업에	-10.4244
▁오차	-10.4247
폭	-10.4247
자금	-10.4249
▁분석에	-10.4253
▁입장에서	-10.4256
▁시장이	-10.4258
시부터	-10.426
▁확인하고	-10.4264
▁흡연	-10.4265
▁한국은	-10.4265
▁말해	-10.4267
▁동력	-10.4272
▁소비자들	-10.4275
회로	-10.4276
▁클	-10.4278
안전	-10.428
▁수신기	-10.4285
▁목소리	-10.4286
▁물이	-10.4288
▁사용하였다	-10.4291
문제	-10.4293
▁중의	-10.4296
▁제주도	-10.43
▁보았	-10.4302
학생	-10.4306
▁것으로서	-10.4312
▁탭	-10.4316
▁어드레스	-10.4317
▁아닙니다	-10.4317
▁캠페인	-10.4317
▁감사드립니다	-10.4319
▁저장부	-10.4319
▁불러	-10.4323
▁s	-10.4325
▁에러	-10.4327
▁정확히	-10.4329
▁시절	-10.433
▁크	-10.4334
▁끝에	-10.4334
▁제스처	-10.4335
▁아프리카	-10.4337
폐	-10.4338
▁보여주고	-10.434
▁고장	-10.4341
▁구현될	-10.4346
▁생물	-10.4346
화가	-10.4349
▁20%	-10.4362
▁도모	-10.4364
▁방법과	-10.4366
▁g	-10.4367
줍니다	-10.4369
▁맵	-10.4369
▁상자	-10.4374
-2	-10.4377
▁확인하였다	-10.4377
▁운영하고	-10.4378
▁나은	-10.4387
완	-10.4393
▁주말	-10.4395
▁했던	-10.4401
헌	-10.4402
on	-10.4402
조건	-10.4403
녀	-10.4408
머	-10.4416
▁내면	-10.4417
▁태국	-10.4418
틀	-10.4418
법은	-10.442
▁고객들	-10.4424
▁팀이	-10.4425
겨	-10.4425
시는	-10.4434
▁피복	-10.4436
귀	-10.4438
▁알칼리	-10.444
▁동반	-10.4441
▁적용하여	-10.4441
전략	-10.4449
▁겪고	-10.445
▁가까이	-10.445
▁심지어	-10.4451
(230)	-10.4451
▁복귀	-10.4451
조치	-10.4453
▁상술	-10.4453
▁사법	-10.4453
▁쪽	-10.4456
▁드라이버	-10.4457
▁될까요	-10.4458
▁제일	-10.446
면에	-10.446
▁2005	-10.446
적극	-10.4461
▁성질	-10.4462
▁일체	-10.4464
▁나사	-10.4467
▁자사	-10.447
가격	-10.4472
▁반환	-10.4473
(11	-10.4482
▁요인으로	-10.4484
점이	-10.4488
▁안전성	-10.449
▁클럽	-10.449
▁배기	-10.4494
부분	-10.4494
율을	-10.4495
▁누가	-10.4498
▁되기	-10.4513
베	-10.4524
하려	-10.4527
▁고대	-10.4532
물질	-10.4533
▁우리에게	-10.4543
▁재무	-10.4543
▁가게	-10.4545
▁재료로	-10.4547
▁맞이	-10.4551
▁휴식	-10.4551
▁들고	-10.4551
▁중점	-10.4552
▁헤	-10.4556
▁제공된	-10.4559
▁메커니즘	-10.456
▁공간에	-10.4566
▁구속	-10.4571
▁고급	-10.4571
▁추구	-10.4571
▁검출하는	-10.4575
▁이건	-10.4579
▁훌륭	-10.4579
▁상대방	-10.4581
▁수상	-10.4582
▁후반	-10.4585
▁만들어진	-10.4585
13	-10.4586
▁골절	-10.4587
▁1990	-10.4588
(12	-10.4588
▁로직	-10.4588
▁쉬운	-10.4588
▁맞춤형	-10.4589
▁발급	-10.459
▁왜냐하면	-10.459
▁커뮤니티	-10.459
▁아내	-10.4592
▁교정	-10.4593
▁반발	-10.4593
▁여유	-10.4597
▁먼지	-10.4598
▁그린	-10.46
▁위로	-10.46
▁표시하는	-10.4601
▁플레이어	-10.4603
하시는	-10.4604
통신	-10.4605
▁입구	-10.4607
▁자세히	-10.4607
▁독	-10.4609
▁요인이	-10.4609
▁도지사	-10.4611
▁건가요	-10.4612
련	-10.4615
▁비만	-10.4616
▁살펴보고	-10.4618
▁파워	-10.4618
닝	-10.4618
▁그래	-10.462
▁식별자	-10.4624
▁채무자	-10.4626
▁평	-10.4626
▁신탁	-10.4627
▁상장	-10.4632
로써	-10.4636
▁제조방법	-10.4637
▁컵	-10.464
지구	-10.464
▁정의된	-10.464
▁스캔	-10.4648
▁용도	-10.4649
것	-10.4663
▁선택하는	-10.4664
▁시기에	-10.4675
체를	-10.4678
▁Z	-10.4681
▁호흡	-10.4687
▁양자	-10.4697
▁농가	-10.4697
▁구별	-10.4705
▁흡착	-10.4706
▁부족한	-10.4708
좌	-10.4709
탑	-10.4716
▁하겠다	-10.4717
▁열가소성	-10.4723
▁슬라이드	-10.4723
▁혈청	-10.4723
▁혼자	-10.4724
CH	-10.4725
▁못하	-10.4725
▁폭발	-10.4727
▁녹색	-10.4727
▁솔루션	-10.4728
▁치아	-10.4729
법이	-10.473
▁겸	-10.4731
▁거리에	-10.4733
쯤	-10.4736
▁장기간	-10.4738
▁어렵	-10.4738
▁복용	-10.474
▁상하	-10.4744
▁긴장	-10.4744
▁이내에	-10.4744
▁법안	-10.4745
▁셈이	-10.4746
▁배치되고	-10.4748
▁다음으로	-10.475
▁문화적	-10.4754
▁양국	-10.476
이드	-10.4765
▁방법으로서	-10.4766
▁농	-10.4773
▁오픈	-10.4774
▁양측	-10.4783
▁시민들	-10.4789
▁에스테르	-10.479
▁의혹	-10.4807
▁하단	-10.4808
▁피부에	-10.482
▁대체로	-10.4824
▁늘어나	-10.4825
▁배치된다	-10.4825
▁신뢰도	-10.483
▁연마	-10.4833
▁교회	-10.4836
하에서	-10.4844
▁요금	-10.4847
혀	-10.4848
▁감염자	-10.4851
▁교과	-10.4852
▁마련되어	-10.4855
▁차별	-10.4858
▁배양	-10.4859
▁책임이	-10.4861
▁않지만	-10.4861
▁다운로드	-10.4861
▁뭔가	-10.4862
▁증착	-10.4862
▁램프	-10.4862
▁활약	-10.4862
▁터키	-10.4863
▁자발적	-10.4863
▁마세요	-10.4864
되었을	-10.4865
▁양쪽	-10.4865
▁유행	-10.4866
▁정권	-10.4868
▁필리핀	-10.4868
▁몇몇	-10.4869
▁있거나	-10.4869
▁높이는	-10.4873
ST	-10.4874
▁대북	-10.4875
▁입고	-10.4876
▁멕시코	-10.4877
▁시나리오	-10.4879
▁말고	-10.488
▁바람직한	-10.4881
▁제시하였다	-10.4883
▁방어	-10.4885
▁그걸	-10.4886
▁전략을	-10.4889
▁그리스	-10.489
▁방역	-10.4893
▁붙여	-10.4894
▁증기	-10.4895
효	-10.4898
▁범위에	-10.4898
대한	-10.4899
▁위생	-10.4899
▁환경에	-10.4907
하겠다고	-10.4913
▁연장되	-10.4914
▁배수	-10.4916
▁수행하기	-10.4918
▁유지할	-10.4924
업무	-10.4929
▁향해	-10.493
▁지진	-10.493
했는지	-10.4943
▁옷	-10.4944
▁굴	-10.4947
▁변조	-10.4949
틴	-10.4953
▁혼	-10.4956
▁여기에서	-10.4963
혼	-10.4963
▁채권자	-10.4964
▁지역사회	-10.4964
▁노동자	-10.4964
▁데에	-10.4968
▁성명	-10.4971
비가	-10.4973
▁용도에	-10.4973
▁밖	-10.4982
▁이들이	-10.4983
▁이유가	-10.4983
▁종목	-10.4985
질환	-10.4986
▁입사	-10.4987
▁실시한	-10.4989
500	-10.4996
▁수신한	-10.4997
범죄	-10.5002
▁나섰다	-10.5002
▁관람	-10.5002
▁이른바	-10.5003
▁편광	-10.5003
▁근데	-10.5004
▁절약	-10.5004
▁권고	-10.5004
▁체중	-10.5004
▁급증	-10.5005
하십시오	-10.5007
▁사후	-10.5008
▁언제든지	-10.501
▁국내외	-10.5011
▁컨텐츠	-10.5011
리스	-10.5012
전극	-10.5013
재를	-10.5014
▁입증	-10.5015
▁신속하게	-10.5016
▁말할	-10.5017
▁상면	-10.5018
▁매각	-10.5026
▁보았다	-10.5027
▁가설	-10.5031
▁비행기	-10.5032
▁법령	-10.5033
▁뼈	-10.5034
제품	-10.5035
되었던	-10.5037
▁처	-10.5042
▁포기	-10.5043
▁회사에서	-10.5045
▁별지	-10.5047
▁기간에	-10.5047
▁견	-10.5048
▁이어지는	-10.505
▁막기	-10.5058
▁적극적	-10.5058
▁사이드	-10.5059
리는	-10.5064
▁의장	-10.5065
▁말하는	-10.5072
▁한류	-10.5074
le	-10.5078
0%	-10.5081
▁선고	-10.5082
▁강원도	-10.5086
▁지역은	-10.5088
▁한국어	-10.509
▁편의	-10.5096
▁표적	-10.5099
▁측정하는	-10.51
왔습니다	-10.5102
▁나타난	-10.5105
▁41	-10.5109
(3	-10.511
▁정보와	-10.5115
▁못할	-10.512
께	-10.5123
▁파리	-10.5123
▁시공	-10.5131
▁트리	-10.5133
▁가야	-10.5134
▁천연	-10.5135
▁소유자	-10.5136
▁전까지	-10.5136
▁기술은	-10.5138
▁객관적	-10.5143
먹	-10.5143
▁했지만	-10.5143
▁이산화탄소	-10.5145
▁자외선	-10.5145
▁이끄는	-10.5145
▁클럭	-10.5145
▁리튬	-10.5145
▁가슴	-10.5145
▁대략	-10.5146
▁봉	-10.5146
▁흥미	-10.5146
▁문헌	-10.5147
▁태양광	-10.5147
체험	-10.5147
▁게다가	-10.5148
받게	-10.5148
▁비율을	-10.5149
▁미팅	-10.5149
▁인공지능	-10.515
▁선수들이	-10.5151
▁성향	-10.5153
차례	-10.5155
카드	-10.5156
▁공항	-10.5157
▁마음이	-10.5159
▁주변에	-10.516
▁마감	-10.5161
구나	-10.5162
▁사용해	-10.5166
부가	-10.5169
▁아기	-10.5169
▁나오고	-10.517
▁보험료	-10.5171
▁적정	-10.5175
▁플레이	-10.5176
▁참여하는	-10.5176
▁창작	-10.5178
▁이점	-10.5183
▁채무	-10.5183
▁고등학교	-10.5184
▁지향	-10.5184
▁소음	-10.5186
▁개인정보	-10.5186
▁심리적	-10.5191
▁도내	-10.5192
▁매력	-10.5192
▁대역	-10.5194
▁결혼	-10.5199
자들은	-10.5199
▁수도권	-10.52
▁전체적으로	-10.5206
이든	-10.5208
▁자율	-10.5211
▁대안	-10.5212
▁유명한	-10.5212
▁선택되는	-10.5214
▁국민의	-10.5218
▁병원에서	-10.522
▁51	-10.5225
▁선진국	-10.5227
선을	-10.5228
▁장치로	-10.523
해왔다	-10.5233
▁유무	-10.5234
▁중국은	-10.5234
▁티	-10.5235
▁출연	-10.5236
▁인터뷰	-10.5243
▁측면에	-10.5245
리아	-10.5246
▁바꾸	-10.5247
라며	-10.5249
▁인원	-10.5263
▁대향	-10.5266
▁부당	-10.5267
▁경기도가	-10.5269
▁결정하기	-10.527
하라	-10.527
▁일부는	-10.5276
▁평행	-10.5279
조원	-10.5282
▁했어요	-10.5285
▁띄	-10.5287
▁받기	-10.529
▁인슐린	-10.529
▁둘러싼	-10.529
데요	-10.529
▁일찍	-10.5291
▁떨어져	-10.5291
모듈	-10.5291
▁조언	-10.5292
▁배향	-10.5293
▁나올	-10.5295
▁열처리	-10.5296
▁나선	-10.5297
▁리드	-10.5298
▁공제	-10.5298
▁덕	-10.5303
▁재질	-10.5306
▁좌표	-10.5309
▁패션	-10.531
▁감각	-10.5312
처분	-10.5312
▁거대	-10.5314
▁재원	-10.5314
▁풍부한	-10.5315
▁사회의	-10.5315
▁의견이	-10.5317
▁저희에게	-10.5319
▁징수	-10.5324
▁안경	-10.5329
제로	-10.5329
▁카페	-10.533
▁격차	-10.5331
▁혁명	-10.5333
▁합병증	-10.5334
▁형사	-10.5334
▁웹사이트	-10.5336
▁환원	-10.5338
▁나타나고	-10.5338
연구원	-10.534
▁숲	-10.5342
▁함유하고	-10.5342
▁적지	-10.5351
행사	-10.5356
▁주어진	-10.5361
▁타일	-10.5368
▁능력이	-10.5368
▁나에게	-10.5372
▁검출된	-10.5373
대학교	-10.5375
▁내로	-10.5377
▁노선	-10.5377
▁리그	-10.5381
▁재발	-10.5385
▁모색	-10.5391
▁맛있	-10.5395
▁쉬	-10.5404
▁내용에	-10.5408
▁철도	-10.5413
▁차이는	-10.5414
▁인재	-10.5416
▁발열	-10.5416
▁돌아	-10.5422
▁결함	-10.5423
▁많지	-10.5425
시까지	-10.5431
▁탄	-10.5434
▁있으니	-10.5437
▁비핵화	-10.5437
▁스타트업	-10.5437
▁부작용	-10.5437
▁높을수록	-10.5438
▁소규모	-10.5438
▁울	-10.5441
▁귀하께서	-10.5442
▁가능성도	-10.5444
▁접종	-10.5447
상품	-10.5448
▁지방자치단체	-10.5449
▁문장	-10.545
(112)	-10.545
▁생산하는	-10.5454
세계	-10.5455
▁예에서	-10.5456
▁공감	-10.5457
▁연습	-10.5458
▁배관	-10.5461
▁CO	-10.5462
▁시일	-10.5463
▁적용되는	-10.5464
▁임원	-10.5464
▁복구	-10.5468
▁행사에	-10.5469
금액	-10.5469
권의	-10.547
▁의약품	-10.5473
공연	-10.5474
년도	-10.5476
▁진행되고	-10.5477
en	-10.5479
▁항공기	-10.5482
▁운전자	-10.5482
▁초등학교	-10.5483
▁방지하기	-10.5484
▁미치지	-10.5484
왔다	-10.5487
▁형성되고	-10.5489
▁전시회	-10.5489
관광	-10.5494
▁문학	-10.5499
▁찍	-10.5501
▁실시예	-10.5504
장애	-10.5509
▁확인됐다	-10.5509
▁구단	-10.5511
▁주십시오	-10.5512
34	-10.5514
▁강하게	-10.5516
▁리스트	-10.5518
▁낙	-10.552
▁샘플을	-10.5525
전이	-10.5529
▁싱가포르	-10.553
▁이하인	-10.5536
▁연구소	-10.5542
▁오른쪽	-10.5547
▁산하	-10.5547
▁이후에	-10.5552
▁설명한다	-10.5553
PS	-10.5554
▁36	-10.5558
▁생성부	-10.556
▁대처	-10.5563
▁방사	-10.5564
▁기금	-10.5568
▁연금	-10.557
▁출력하는	-10.5572
(18	-10.5573
▁34	-10.5574
▁무효	-10.5576
▁극복	-10.5579
칭	-10.5579
▁개발한	-10.5582
▁순차적	-10.5582
▁옥	-10.5583
탕	-10.5584
▁컨베이어	-10.5586
(170)	-10.5587
▁산업혁명	-10.5587
▁음극	-10.5588
▁측벽	-10.5589
▁상세	-10.559
(410)	-10.5592
턴	-10.5592
칸	-10.5594
▁알레르기	-10.5594
스포츠	-10.5595
▁가방	-10.5596
▁하여금	-10.5597
혁	-10.5598
▁규정이	-10.56
▁자전거	-10.56
▁가능하도록	-10.5601
만명	-10.5607
▁지자체	-10.561
▁보조금	-10.5611
▁비난	-10.5611
연구소	-10.5612
▁초청	-10.5615
▁어려움이	-10.5615
▁단기	-10.5617
지가	-10.5619
▁쿠	-10.5622
▁재미있	-10.5624
▁띠	-10.5624
▁울산	-10.5625
▁공모	-10.5626
▁루프	-10.5628
해온	-10.5629
▁전동	-10.5633
ed	-10.5638
▁지내	-10.5648
들에서	-10.5648
▁사람들에게	-10.5651
제가	-10.5655
성분	-10.5665
▁고온	-10.5666
▁특성이	-10.5666
일간	-10.5666
지방	-10.5669
▁결정한다	-10.5675
▁규범	-10.5677
▁쪽으로	-10.5679
신청	-10.5685
▁시간은	-10.5689
▁올리	-10.5692
▁기술적	-10.5696
▁희생	-10.5697
▁각각에	-10.5706
하나	-10.5707
센서	-10.5708
▁포함된다	-10.5711
▁400	-10.5714
▁내부의	-10.5717
▁위에서	-10.5725
▁골프	-10.573
▁방향에	-10.5734
과학	-10.5736
▁얻기	-10.5738
▁오랫동안	-10.5738
▁찾기	-10.5738
▁누군가	-10.5738
▁드럼	-10.5738
냈다	-10.5738
▁빅데이터	-10.5739
감이	-10.5739
▁방식에	-10.5739
▁재활용	-10.5741
▁시행령	-10.5741
▁올려	-10.5742
▁지름	-10.5742
▁장벽	-10.5742
▁전해질	-10.5744
▁스타	-10.5745
▁존	-10.5746
▁회전축	-10.5749
셀	-10.5749
▁타당성	-10.575
▁급성	-10.575
▁테이프	-10.5751
▁주지	-10.5752
▁쉽고	-10.5754
▁우측	-10.5755
▁52	-10.576
▁상고	-10.5762
▁플라즈마	-10.5763
▁관리하는	-10.5763
▁농촌	-10.5764
▁구조는	-10.5766
▁쌀	-10.5772
▁와서	-10.5772
▁도서	-10.5779
▁면제	-10.578
▁학	-10.5783
▁달라	-10.5785
명에	-10.5786
▁경북	-10.5789
규정	-10.5791
▁녹	-10.5793
비록	-10.5793
▁지방세	-10.5796
▁수명	-10.5797
▁사용하면	-10.5799
▁유아	-10.5803
▁세그먼트	-10.5803
▁과도한	-10.5804
▁결과와	-10.5806
▁작업이	-10.5808
▁관할	-10.5808
▁확인하는	-10.5814
▁알려주	-10.5816
▁참여할	-10.5817
▁프로그램이	-10.5824
▁깊	-10.5829
▁회로는	-10.5833
할게요	-10.5836
▁이론적	-10.584
▁마련한	-10.584
▁곳으로	-10.5851
▁진행된다	-10.5853
▁시대에	-10.5853
▁판단하는	-10.5853
셨	-10.5854
▁사업장	-10.5858
곤	-10.5859
9%	-10.5859
▁범	-10.5861
▁기자	-10.5862
▁쌓	-10.5863
체의	-10.5865
▁발포	-10.5866
▁제시하고	-10.5868
어서	-10.5869
▁항공사	-10.587
층에	-10.5871
하다는	-10.5873
기반	-10.5874
▁유지하기	-10.5874
닐	-10.5875
▁요소들	-10.5877
제의	-10.5882
▁110	-10.5885
ar	-10.589
▁용이	-10.589
▁어려울	-10.5892
▁읽기	-10.5892
▁기자회견	-10.5892
▁보호를	-10.5892
▁확립	-10.5892
답	-10.5892
▁어깨	-10.5892
▁보여주었다	-10.5893
▁반송	-10.5893
▁석탄	-10.5893
▁무엇인지	-10.5895
데이터	-10.5895
▁인생	-10.5897
▁걸릴	-10.5898
▁중국에서	-10.5898
▁그리	-10.5899
▁훼손	-10.59
▁비례	-10.59
궁	-10.59
질량	-10.5904
▁구강	-10.5904
감독	-10.5907
▁하자	-10.5908
▁차지하고	-10.5909
TR	-10.591
▁근	-10.5911
▁변호사	-10.5911
▁형법	-10.5913
▁하천	-10.5915
▁입찰	-10.5916
▁지질	-10.5917
▁해당한다	-10.5919
(26)	-10.5924
▁부담이	-10.5925
▁여과	-10.5926
▁교육의	-10.5931
▁길게	-10.5931
▁참고	-10.5934
▁하에서	-10.5935
▁불량	-10.594
변수	-10.5941
▁효소	-10.5944
자들	-10.5944
▁남편	-10.5949
▁당장	-10.595
▁없기	-10.5955
▁사항은	-10.5958
▁필수	-10.5961
▁참조하면	-10.5961
▁시작된	-10.5961
▁휴가	-10.5963
▁끼	-10.5964
▁생성한다	-10.5965
▁생각하는	-10.5978
복지	-10.5985
▁증가한	-10.5988
▁육	-10.5988
▁사기	-10.599
▁시선	-10.5996
▁정수	-10.5997
▁됐	-10.5999
▁싸	-10.6
▁위법	-10.6001
▁맥락	-10.6006
▁임의로	-10.601
▁화상을	-10.6011
▁직경	-10.6011
▁운동을	-10.6012
35	-10.6012
▁기초한	-10.6015
▁질문에	-10.6017
▁정착	-10.6024
▁회장이	-10.6025
▁범주	-10.6026
▁경매	-10.603
▁영역은	-10.6037
▁활용해	-10.6038
▁지하	-10.604
▁못한다	-10.6045
▁쇼핑	-10.6047
▁시퀀스	-10.6048
학과	-10.6049
▁스택	-10.6049
▁고정된	-10.605
▁차폐	-10.605
갑	-10.6054
▁불만	-10.6056
됨으로써	-10.6056
폰	-10.6058
▁환상	-10.606
▁보급	-10.6061
▁블랙	-10.6062
▁원장	-10.6062
▁치료제	-10.6063
리에	-10.6064
▁예로	-10.6069
▁상실	-10.6072
공급	-10.6072
▁5%	-10.6072
되었는지	-10.6073
▁검정	-10.6075
독특한	-10.6079
▁저감	-10.608
▁불리	-10.6084
▁물리	-10.6092
▁상상	-10.6098
▁회동	-10.61
▁거기	-10.6104
▁가득	-10.6104
▁요청에	-10.611
▁차지	-10.6111
▁이어서	-10.6116
▁근대	-10.6117
▁기준이	-10.6119
▁푸	-10.6119
▁사업이	-10.6121
SP	-10.6121
▁맥	-10.6123
▁정확도	-10.6124
▁갖	-10.6126
▁거리가	-10.6126
이라면	-10.6128
감을	-10.6133
▁정책이	-10.6135
▁진행되는	-10.6142
▁지지부	-10.6148
생활	-10.6152
▁파티	-10.616
▁난방	-10.6163
▁전해	-10.6167
▁북쪽	-10.6168
▁강력	-10.617
▁감성	-10.617
으면서	-10.6172
st	-10.6172
▁분명	-10.6173
▁체	-10.6176
▁타인	-10.6177
▁목적이	-10.6177
접	-10.6178
척	-10.6183
▁증가했다	-10.6186
▁엘리먼트	-10.6189
▁깨끗	-10.6195
▁소외	-10.6196
대회	-10.6199
▁직원이	-10.6199
▁상환	-10.6204
▁블레이드	-10.6207
▁클러스터	-10.6207
▁사운드	-10.6207
▁스트립	-10.6207
▁둘째	-10.6207
(500)	-10.6207
▁고품질	-10.6207
▁인류	-10.6208
▁않으며	-10.6208
▁발송	-10.6208
▁치매	-10.6208
▁샘플링	-10.6209
▁알려주세요	-10.6209
▁1000	-10.6209
▁강의	-10.6209
▁들었습니다	-10.621
▁건립	-10.6211
▁체계적	-10.6212
▁분명히	-10.6214
▁지지대	-10.6215
해질	-10.622
(15	-10.622
묘	-10.6221
(111)	-10.6221
▁의사결정	-10.6222
에너지	-10.6224
▁혼합물을	-10.6227
▁김씨	-10.6229
▁이루는	-10.6229
▁찬성	-10.6229
▁성분이	-10.6231
(4	-10.6236
▁진행하고	-10.6236
(2	-10.6236
▁써	-10.6238
▁사망률	-10.6241
▁방문해	-10.6242
(9	-10.6242
▁130	-10.6244
▁소형	-10.6244
자들이	-10.6247
분이	-10.625
▁치료법	-10.6256
내용	-10.6256
이번	-10.6258
▁돌아가	-10.6259
▁노력이	-10.6267
값이	-10.6267
▁제거하는	-10.6276
▁약제	-10.6279
▁정원	-10.628
▁늘고	-10.6283
문을	-10.6287
이어서	-10.6287
▁미친다	-10.6298
▁구조적	-10.6299
▁원소	-10.6299
됐다고	-10.6301
▁증권	-10.6305
간의	-10.6306
▁숙박	-10.6308
▁놀이	-10.6308
4%	-10.631
개로	-10.6316
▁사람에게	-10.6316
30)	-10.6319
▁개선된	-10.632
▁표시부	-10.6325
▁지사	-10.6325
▁안정화	-10.6325
▁피로	-10.6327
축제	-10.6335
▁길이를	-10.634
지고	-10.6341
▁경영자	-10.6341
▁폐기	-10.6348
▁두산	-10.6351
▁45	-10.6356
▁확인하기	-10.6357
▁주인공	-10.6357
▁아날로그	-10.6368
▁노이즈	-10.6368
▁가볍	-10.6368
▁드라이브	-10.6368
▁도쿄	-10.6368
▁영역이	-10.6368
▁협업	-10.6369
▁신제품	-10.637
▁좌석	-10.6371
▁대폭	-10.6371
▁상처	-10.6372
▁비밀	-10.6374
▁실질	-10.6376
▁북미	-10.6376
▁축하	-10.6377
▁거죠	-10.6379
▁증시	-10.6382
▁아니요	-10.6384
▁t	-10.6386
▁개정안	-10.6387
▁투과	-10.6388
맨	-10.6388
▁지켜	-10.6389
포인트	-10.6389
▁도체	-10.6395
▁급속	-10.6396
▁시료	-10.6403
▁해안	-10.6407
▁재난	-10.6407
능	-10.6408
▁고객에게	-10.6409
v	-10.641
▁떨어지는	-10.6416
▁동적	-10.6417
법상	-10.6419
▁터	-10.6419
▁생성하기	-10.6419
▁전제로	-10.642
▁전제	-10.642
되므로	-10.6422
▁분리된	-10.6423
▁아니고	-10.6425
정치	-10.6427
물의	-10.6428
▁대표팀	-10.6428
▁모듈은	-10.6431
▁최적화	-10.6434
▁선도	-10.6437
▁기업들이	-10.6437
▁가능하고	-10.6438
▁저기	-10.6438
▁둘레	-10.6444
▁사용되고	-10.6449
▁참석한	-10.6453
시대	-10.6453
▁것이었다	-10.6456
하더라도	-10.6462
▁수령	-10.6464
▁비교해	-10.6465
▁근거로	-10.6474
▁그간	-10.6479
▁이메일로	-10.6494
▁거듭	-10.6496
▁악기	-10.6496
▁자신들	-10.6503
검	-10.6504
▁제목	-10.6504
▁실증	-10.6505
▁(2)	-10.6507
▁점에	-10.6508
▁로그	-10.6508
▁쓰는	-10.6512
람	-10.6513
▁페	-10.6514
▁적절	-10.6516
층은	-10.6517
▁대단	-10.6518
▁뜨거	-10.6519
=	-10.6522
▁전방	-10.6522
▁연대	-10.6526
▁크지	-10.6527
미국	-10.6527
자에	-10.6528
엽	-10.6531
딜	-10.6532
▁클램프	-10.6532
▁미립자	-10.6532
▁바란다	-10.6532
▁슬릿	-10.6532
▁휴대전화	-10.6532
▁암호화폐	-10.6532
▁출석	-10.6533
▁밝힌	-10.6534
▁중구	-10.6534
▁보낼	-10.6536
▁ID	-10.654
▁프레스	-10.654
▁다이오드	-10.654
0°	-10.6542
주년	-10.6544
▁계속해서	-10.6546
▁스토리지	-10.6547
▁허리	-10.6552
▁양극	-10.6553
▁안심	-10.6556
▁검출부	-10.6557
▁잠재	-10.6557
주택	-10.6559
관련	-10.6559
(16	-10.6559
작업	-10.6559
▁공포	-10.6564
▁가져	-10.6564
▁따뜻한	-10.6569
▁중국과	-10.6571
▁멤버	-10.6572
▁의뢰	-10.6573
▁해상	-10.6574
▁증폭기	-10.6575
▁담은	-10.6575
▁가면	-10.6575
었고	-10.6577
▁기본권	-10.6577
▁받아야	-10.6578
▁역사적	-10.6581
▁최근에	-10.6584
▁원천	-10.6589
탁	-10.659
아이	-10.6596
▁자랑	-10.6598
비율	-10.6603
▁팬들	-10.6605
▁분석했다	-10.6611
▁정밀	-10.6614
▁모습	-10.662
▁칼	-10.6625
▁문화재	-10.6629
물이	-10.663
▁척	-10.6631
▁송수신	-10.6632
▁분기	-10.6633
▁바라	-10.6633
▁형성하기	-10.6638
-3	-10.6638
▁조건이	-10.6638
▁했는데	-10.664
▁포함해	-10.664
▁관광지	-10.6645
▁학교에서	-10.6646
▁구상	-10.6648
▁CT	-10.6657
▁고려한	-10.666
▁유물	-10.6666
▁실장	-10.667
▁J	-10.6682
▁옆	-10.6686
▁택	-10.6687
▁최저	-10.6687
▁수량	-10.669
▁흡입	-10.6693
▁반응이	-10.6694
▁미국은	-10.6695
▁강사	-10.6696
▁기쁩니다	-10.6699
▁싶지	-10.6699
▁얻고	-10.6699
▁열심히	-10.6699
▁리스크	-10.6699
▁개막	-10.6701
(310)	-10.6702
내에	-10.6703
▁호출	-10.6703
▁세션	-10.6703
권이	-10.6703
▁대립	-10.6705
▁프린터	-10.6707
▁공공기관	-10.6711
▁각각은	-10.6711
▁위축	-10.6711
DA	-10.6713
▁반대로	-10.6714
▁공동으로	-10.6715
▁사안	-10.6717
▁고통	-10.6717
▁오르	-10.672
▁매매	-10.6721
▁도시된	-10.6722
▁아빠	-10.6723
호에	-10.6724
▁절연층	-10.6725
▁근거하여	-10.6727
▁시위	-10.673
▁구분하여	-10.673
(23)	-10.6731
▁위주	-10.6732
▁이외에	-10.6732
상황	-10.6733
▁다음에	-10.6739
▁조건에	-10.6739
z	-10.6742
예를	-10.6743
20)	-10.6745
▁처리할	-10.6745
▁되나요	-10.6753
▁구동부	-10.6753
▁가리	-10.6753
▁급여	-10.6757
▁민원	-10.6758
▁가장자리	-10.6762
▁환자에게	-10.6768
▁이뤄지	-10.6768
▁이래	-10.6769
▁치환	-10.677
▁나가	-10.6774
▁속하는	-10.6775
▁여가	-10.6778
▁동원	-10.6778
▁상향	-10.678
장관	-10.6781
▁`	-10.6783
▁위치하고	-10.6783
▁입력된	-10.6791
▁명령어	-10.6796
▁소지	-10.6797
▁체육	-10.6798
▁고리	-10.6803
▁기록했다	-10.6809
▁않았습니	-10.6816
▁변화는	-10.6826
▁산지	-10.6828
▁동시	-10.6829
▁커	-10.6831
구청장	-10.6832
▁마리	-10.6834
▁방안이	-10.6835
▁경주	-10.6842
▁기대한다	-10.6851
▁정식	-10.6854
▁하나요	-10.6854
▁좌	-10.6856
겠지만	-10.6856
자산	-10.686
(17	-10.6863
▁서식	-10.6866
▁지하철	-10.6867
▁위촉	-10.6868
▁비타민	-10.6868
▁에폭시	-10.6868
▁냉매	-10.6869
▁불평등	-10.6869
▁담긴	-10.687
▁전구체	-10.687
▁북한이	-10.6871
▁미생물	-10.6874
▁어플리케이션	-10.6874
▁서열	-10.6875
▁피크	-10.6877
▁캔	-10.6877
▁고혈압	-10.6877
▁종종	-10.6877
▁연통	-10.6879
▁유인	-10.688
▁중공	-10.688
잔	-10.6883
▁이로	-10.6884
▁시사한다	-10.6884
▁몰입	-10.6885
▁구성되며	-10.6885
▁커지고	-10.6886
▁제조된	-10.6887
▁선임	-10.6888
▁크림	-10.689
잡	-10.689
▁송금	-10.6891
섬	-10.6891
▁합리적인	-10.6893
J	-10.6894
it	-10.6895
▁주조	-10.6903
▁스텝	-10.6904
협력	-10.6905
▁영향으로	-10.6905
▁단속	-10.6907
▁침	-10.6907
▁복합체	-10.6909
▁관세	-10.691
(20	-10.691
명령	-10.6913
▁적용하는	-10.6913
▁박람회	-10.6914
▁추출물	-10.6914
▁파악하고	-10.6917
가능	-10.6917
▁포함될	-10.6919
▁가고	-10.6919
▁기간이	-10.6921
▁않다는	-10.6922
▁환자와	-10.6923
▁남부	-10.6925
▁결과로	-10.6936
이라도	-10.6936
▁방식의	-10.6939
제는	-10.6939
▁모임	-10.6942
▁조성물에	-10.6942
CC	-10.6945
▁소개하려	-10.6946
▁쓰기	-10.6947
▁드리고	-10.6947
▁기업에	-10.6948
▁분석이	-10.6952
▁설문	-10.6953
▁테	-10.6958
니아	-10.6959
▁대금	-10.6963
위에	-10.6966
▁수리	-10.6968
되지만	-10.6971
▁활	-10.6976
▁입주	-10.6977
▁증	-10.6981
▁높이고	-10.6982
대의	-10.6986
▁정기	-10.6987
▁각자	-10.6987
▁기준에	-10.6987
▁하나인	-10.6994
듯	-10.6995
▁못해	-10.6997
▁여성이	-10.6999
▁유연	-10.7
es	-10.7003
▁매수	-10.7013
10)	-10.7019
▁부드러	-10.7024
▁트	-10.7029
▁제도적	-10.7029
▁측면이	-10.703
홍	-10.7036
해주셔서	-10.7038
▁모니터	-10.704
▁옮겨	-10.704
▁나눠	-10.704
▁올랐다	-10.704
▁발생을	-10.7042
▁관계없이	-10.7044
▁화려	-10.7044
▁당초	-10.7047
▁정부와	-10.7048
▁2004	-10.7049
▁모발	-10.705
▁호소	-10.7051
▁눈길	-10.7051
▁갖게	-10.7052
▁하늘	-10.7055
▁어디서	-10.7055
▁놀	-10.7057
▁익	-10.7057
▁낼	-10.7057
▁개체	-10.7057
▁출혈	-10.7057
▁계좌	-10.7057
▁2003	-10.7057
▁천식	-10.7059
▁교육이	-10.7062
▁야구	-10.7064
(25)	-10.7065
▁DNA	-10.7065
▁석유	-10.7066
▁이득	-10.7068
국민	-10.7068
▁연관성	-10.7069
▁격자	-10.7072
▁된다는	-10.7076
▁발생하고	-10.7077
▁곱	-10.7081
▁메타	-10.7088
상으로	-10.7089
▁레일	-10.7091
▁30%	-10.7092
▁하나가	-10.7094
하였으나	-10.7099
바로	-10.7102
▁이탈	-10.7107
▁덮개	-10.7107
▁연출	-10.7107
▁세정	-10.7112
▁소요	-10.7113
▁향상된	-10.7116
됐으며	-10.7125
23	-10.7127
▁창고	-10.7129
▁불과	-10.7129
▁커패시터	-10.7134
▁편차	-10.7137
▁제공해	-10.7144
▁시장을	-10.7156
▁주장하는	-10.716
▁모집	-10.716
사고	-10.7162
장에	-10.7166
▁준비가	-10.7167
▁진행될	-10.7168
▁전년	-10.717
▁임기	-10.7179
▁원고의	-10.7183
재산	-10.7195
기와	-10.7202
▁%	-10.7206
▁것인가	-10.7207
▁신호가	-10.7209
▁전략적	-10.7213
▁지붕	-10.7216
▁디코딩	-10.7216
▁다양성	-10.7216
(1000)	-10.7216
▁재구성	-10.7217
▁보편적	-10.7217
▁장갑	-10.7218
▁늘었다	-10.7219
▁연구진	-10.7221
▁아니냐	-10.7221
▁스펙트럼	-10.7222
▁통보	-10.7223
▁추론	-10.7225
▁본질	-10.7226
▁표시될	-10.7226
▁캐비티	-10.7227
(60)	-10.7228
▁이어졌다	-10.7229
지로	-10.723
▁마찰	-10.7231
▁휴대용	-10.7232
▁처방	-10.7233
▁심화	-10.7234
▁환형	-10.7237
▁대변인	-10.7238
▁ICT	-10.7239
▁사용자에	-10.7239
▁필	-10.7241
▁장착된	-10.7241
았습니다	-10.7244
▁높아지고	-10.7246
▁웃	-10.7247
▁동향	-10.7248
▁표시된	-10.7249
▁알킬	-10.725
▁짜	-10.7253
▁평등	-10.7253
▁워크	-10.7253
▁효력	-10.7257
▁온도에서	-10.7258
▁솔	-10.726
▁존중	-10.726
▁도금	-10.7263
▁부진	-10.7264
▁방수	-10.7267
▁체인	-10.7268
▁투수	-10.7268
▁인적	-10.727
▁만들었다	-10.7272
므로	-10.7273
▁같은데	-10.7276
▁크고	-10.7278
형으로	-10.7281
▁μ	-10.7283
▁철학	-10.7286
▁막대	-10.7289
▁유용	-10.729
▁거기에	-10.7291
▁확인했다	-10.7291
장의	-10.7294
스는	-10.7302
▁간접	-10.7303
▁평소	-10.7312
▁보세요	-10.7314
▁물가	-10.7316
▁통과하는	-10.732
▁적용된	-10.732
▁매핑	-10.7321
했어	-10.7324
▁기다려	-10.7325
▁힘들	-10.7326
▁패스	-10.7331
▁가계	-10.734
▁돌려	-10.7343
▁병변	-10.7344
▁종교	-10.7346
▁유해	-10.7353
▁가시	-10.7354
▁열린다	-10.7365
▁있을지	-10.7367
▁사이에는	-10.7368
▁밑	-10.7377
▁합리적	-10.7378
목적	-10.738
소자	-10.7381
▁검지	-10.7382
ra	-10.7384
▁압출	-10.7384
윤	-10.7388
▁쥐	-10.739
▁제어한다	-10.7392
치고	-10.7392
젠	-10.7394
▁쟁점	-10.7395
▁태스크	-10.7395
▁규명	-10.7395
▁구획	-10.7395
▁의결	-10.7396
▁늘리	-10.7397
▁소견	-10.7397
▁왜곡	-10.7399
▁이스라엘	-10.7401
장비	-10.7401
▁권장	-10.7402
▁애플	-10.7403
▁뭘	-10.7404
▁폴리에스테르	-10.7404
▁우유	-10.7404
▁시술	-10.7405
▁특이	-10.7405
▁해변	-10.7407
법의	-10.7409
▁전반적으로	-10.7409
▁패킷	-10.7413
▁열교환기	-10.7414
▁혈당	-10.7418
는데요	-10.742
▁지방산	-10.7421
▁빌딩	-10.7422
▁결핵	-10.7422
▁어려워	-10.7423
혹	-10.7424
▁위임	-10.7424
▁캡	-10.7428
신고	-10.7431
틱	-10.7433
판매	-10.7436
▁주신	-10.7436
▁문구	-10.7438
▁테러	-10.7444
▁아는	-10.7449
▁과목	-10.7454
▁높아	-10.746
▁구성되고	-10.7468
▁거라고	-10.747
전에서	-10.7475
관을	-10.7477
▁제품으로	-10.7484
▁폴	-10.7486
교사	-10.7491
▁f	-10.7508
▁성장률	-10.7509
▁표기	-10.7509
▁관객	-10.7512
▁얻어	-10.7526
▁오프	-10.7528
▁대표적	-10.753
방지	-10.7531
▁저해	-10.7531
▁하이	-10.7532
▁수신하고	-10.7532
▁마이크	-10.7533
▁지적이	-10.7534
사건	-10.7535
▁잠재적	-10.7536
▁결과적으로	-10.7539
▁구제	-10.7541
▁단위로	-10.7541
▁변동성	-10.7545
▁주최	-10.7546
▁보여주	-10.7546
▁선사	-10.7546
▁수송	-10.7547
▁발휘	-10.7547
▁전하	-10.755
(100	-10.7557
1-	-10.7558
▁아이들이	-10.7562
▁보일	-10.7563
섭	-10.7565
중국	-10.7565
▁냉동	-10.7565
▁이사회	-10.7565
DM	-10.7575
센	-10.7575
▁분석하여	-10.7576
▁단량체	-10.7576
▁커맨드	-10.7576
』	-10.7576
▁노트북	-10.7577
▁휴대폰	-10.7577
▁타깃	-10.7577
▁경기에서	-10.7578
▁잠시	-10.7578
▁파손	-10.7578
▁드러나	-10.758
건설	-10.758
▁만날	-10.758
▁숙소	-10.758
▁국경	-10.7581
▁2006	-10.7583
(320)	-10.7583
▁고도	-10.7585
▁피해가	-10.7588
▁1%	-10.7596
▁행렬	-10.7596
(14	-10.7598
▁올림픽	-10.7599
▁금형	-10.7601
성에	-10.7602
▁기다리고	-10.7604
세가	-10.7604
▁과실	-10.7604
참	-10.7605
쉬	-10.7605
▁덕분에	-10.7607
▁입지	-10.7608
▁터널	-10.7609
▁이루고	-10.7609
▁이름이	-10.7609
꺼	-10.761
)'	-10.7611
▁치수	-10.7611
▁후원	-10.7615
▁휠	-10.7615
시면	-10.7615
돈	-10.7616
▁이루	-10.7617
▁배분	-10.7618
시험	-10.7618
DC	-10.7618
▁이걸	-10.762
▁돌출부	-10.7621
▁그거	-10.7622
▁수동	-10.7623
소송	-10.7624
▁보건소	-10.7626
▁연결되고	-10.7626
▁공적	-10.763
▁전남	-10.7635
▁중증	-10.7635
분야	-10.7636
▁결정된다	-10.7638
해진다	-10.7639
▁볼트	-10.7642
▁분들	-10.7644
▁수행하고	-10.7647
▁시계	-10.7647
받았다	-10.7654
▁국민들	-10.7657
▁요소는	-10.7658
▁즐거	-10.7659
▁일하는	-10.7659
ol	-10.7662
300	-10.7663
▁국도	-10.7664
▁일은	-10.7665
▁암호	-10.7674
단위	-10.7678
▁창의적	-10.768
▁과학적	-10.7681
▁중대	-10.7692
이어	-10.7696
사실	-10.7697
▁비슷	-10.7705
▁영향에	-10.7706
▁참가자	-10.7707
기금	-10.771
▁다녀	-10.7713
버스	-10.7715
상에서	-10.7716
BA	-10.7721
▁48	-10.7722
▁분석하고	-10.7725
▁높여	-10.7725
▁연수	-10.7734
▁살펴보	-10.7737
보겠습니다	-10.7737
▁진행할	-10.7738
▁취득한	-10.7739
▁주위에	-10.7742
▁강도가	-10.7745
▁줄이는	-10.7746
주기	-10.7748
▁방법이다	-10.7754
▁봄	-10.7756
▁철저	-10.7756
주가	-10.776
▁전송하는	-10.7761
▁슬리브	-10.7761
▁첨단	-10.7762
▁래치	-10.7762
▁베이징	-10.7762
▁은퇴	-10.7762
▁pH	-10.7763
▁탑	-10.7764
▁굳	-10.7764
▁드론	-10.7765
▁필터링	-10.7765
▁힘든	-10.7765
치료	-10.7766
▁미니	-10.7767
▁있었지만	-10.7767
TV	-10.7767
▁전해졌다	-10.7768
▁세로	-10.7769
▁인출	-10.7769
▁합계	-10.7769
▁점심	-10.777
▁KBO	-10.7774
▁최저임금	-10.7776
▁자석	-10.7777
사와	-10.7778
▁경유	-10.7778
▁수단으로	-10.778
▁그럴	-10.778
▁존재하지	-10.7782
▁직물	-10.7784
▁합병	-10.7784
▁강철	-10.7787
▁방문한	-10.7789
행동	-10.7789
스가	-10.7789
예술	-10.779
▁개시한다	-10.779
200	-10.7794
00	-10.7795
▁주재	-10.7801
▁말이	-10.7804
협의회	-10.7806
▁몰	-10.7807
▁의원이	-10.7807
▁무상	-10.7807
▁해상도	-10.7808
▁추정된다	-10.7812
PA	-10.7814
▁어린이들	-10.7818
▁주석	-10.7818
▁복사	-10.7818
▁공간에서	-10.7822
▁나갈	-10.783
▁유치원	-10.783
▁반응기	-10.7833
▁선단	-10.7835
▁도시한	-10.7835
▁신분	-10.7839
▁적용된다	-10.7844
킨	-10.7844
▁완전한	-10.7844
▁죄	-10.7845
▁첨가제	-10.785
▁들어오	-10.7851
▁한국과	-10.7852
▁거주하	-10.7852
더니	-10.7853
▁함으로써	-10.7859
▁거치	-10.7866
▁디바이스에	-10.7868
에서만	-10.7874
납	-10.7874
00)	-10.7876
▁진화	-10.7876
▁다르	-10.7878
▁자신감	-10.7879
▁회의에서	-10.7881
▁칠	-10.7882
의무	-10.7888
▁디자인을	-10.7889
▁기능에	-10.7889
▁사업은	-10.7889
▁분쇄	-10.7891
)’	-10.7891
증권	-10.7894
▁전문성	-10.7894
▁노조	-10.7898
▁분석에서	-10.79
▁nm	-10.79
26	-10.7901
액이	-10.7903
대출	-10.7906
▁게시	-10.7906
군의	-10.7917
여행	-10.7917
▁필수적	-10.7921
▁신청서	-10.7937
▁반응성	-10.7938
▁환율	-10.7943
▁징계	-10.7947
▁재단	-10.7947
▁했	-10.7948
▁걸어	-10.7948
▁구할	-10.7948
▁잇따	-10.7949
▁CD	-10.7949
▁매니저	-10.795
▁뮤지컬	-10.795
▁올바른	-10.795
▁회귀	-10.795
▁출범	-10.7951
▁당분간	-10.7951
▁원심판결	-10.7951
▁그러므로	-10.7951
▁원인으로	-10.7952
▁추후	-10.7952
▁단열	-10.7953
▁1980	-10.7953
▁면담	-10.7953
▁엔	-10.7953
▁진심으로	-10.7957
책임	-10.7957
▁활용하는	-10.7962
▁화물	-10.7962
▁투사	-10.7965
(122)	-10.7966
▁혼란	-10.7967
▁국방부	-10.7967
▁옆에	-10.7971
▁출원	-10.7971
수준	-10.7973
▁매출액	-10.7974
▁귀사와	-10.7975
▁복제	-10.7976
▁임상적	-10.7977
▁세기	-10.7978
▁지명	-10.7979
▁넘어서	-10.7979
▁월드컵	-10.7982
▁건축물	-10.7984
▁주방	-10.7984
▁호흡기	-10.7986
▁기존에	-10.7986
욕	-10.7988
▁업종	-10.7988
▁요구된다	-10.7989
피스	-10.799
▁38	-10.7993
팔	-10.7997
▁방향과	-10.7998
▁트랙	-10.7999
▁면에서	-10.7999
▁이외에도	-10.7999
훈련	-10.8001
기기	-10.8001
▁접속된	-10.8002
▁:	-10.8005
▁발사	-10.8006
▁줄여	-10.8007
▁조약	-10.8008
▁열정	-10.8008
응	-10.8009
▁사회주의	-10.8013
▁그만큼	-10.8018
▁빵	-10.8018
▁증가할	-10.802
모드	-10.8021
장으로	-10.8025
▁온수	-10.8028
▁와인	-10.8029
▁이동하는	-10.8031
▁VR	-10.8032
▁상법	-10.8036
▁만들었	-10.8037
▁근본적	-10.8037
▁빠져	-10.804
▁일시	-10.8042
스테	-10.8048
시키도록	-10.8056
▁소유권	-10.806
▁증가율	-10.8063
▁전부터	-10.8063
▁생성하고	-10.8068
▁진보	-10.8068
▁승	-10.8068
으	-10.8068
▁정면	-10.8077
▁밝혀	-10.8077
▁개발이	-10.8082
해진	-10.8085
▁나오	-10.8088
0)	-10.8089
SI	-10.8098
량의	-10.8099
▁이르는	-10.81
▁차가	-10.81
얼	-10.8109
분을	-10.8114
▁전액	-10.8116
▁나가는	-10.8117
▁명칭	-10.8117
제어	-10.8119
▁선행연구	-10.8124
자연스럽게	-10.813
▁찬	-10.8135
▁것들이	-10.8137
▁발전에	-10.8139
SA	-10.814
▁변위	-10.814
▁컨트롤	-10.8141
낭	-10.8141
▁자살	-10.8142
▁갔다	-10.8142
▁인덱스	-10.8142
▁좋겠습니다	-10.8142
▁붕괴	-10.8142
▁극대화	-10.8143
▁적당	-10.8143
▁벌써	-10.8143
▁다섯	-10.8143
러운	-10.8143
▁연휴	-10.8144
여부	-10.8145
▁테마	-10.8145
▁집계	-10.8145
▁화장실	-10.8147
▁대외	-10.8147
▁할머니	-10.8147
▁목적지	-10.8148
▁귀국	-10.8148
▁모래	-10.8149
▁타이어	-10.8149
▁일환으로	-10.815
▁만난	-10.815
이거나	-10.8151
▁선출	-10.8151
▁서양	-10.8152
'(	-10.8153
치가	-10.8153
▁상류	-10.8153
▁시범	-10.8154
▁인민	-10.8154
▁아암	-10.8154
▁입금	-10.8156
▁미국이	-10.8156
▁단단	-10.8156
▁측정된	-10.8156
▁높아지	-10.8158
▁질소	-10.8158
▁관광객들	-10.8159
▁가능하며	-10.816
▁직전	-10.8161
▁마커	-10.8161
▁요청할	-10.8163
▁생산량	-10.8163
▁클래스	-10.8164
▁사장	-10.8164
▁이루어졌다	-10.8167
▁영역으로	-10.8167
▁치즈	-10.8169
▁콘서트	-10.8169
▁1,000	-10.8169
3%	-10.8169
▁폼	-10.8172
개가	-10.8173
▁용해	-10.8173
▁대상물	-10.8174
▁편지	-10.8174
▁평생	-10.8175
▁단독	-10.8178
▁반경	-10.818
▁계곡	-10.8182
하라고	-10.8183
▁OECD	-10.8183
▁변수로	-10.8187
▁저렴한	-10.8187
음악	-10.8194
▁0.2	-10.8195
▁채소	-10.8196
사무	-10.8197
▁차별화	-10.8198
득	-10.8203
틸	-10.8209
▁법리	-10.8213
▁감소하는	-10.8213
▁정제	-10.8214
▁대부분이	-10.8214
▁분들이	-10.8215
▁부착된	-10.8218
▁기원	-10.8218
부담	-10.8218
▁내용과	-10.8219
▁연합	-10.8222
▁납세자	-10.8228
결합	-10.8232
해주세요	-10.8233
▁치료가	-10.8233
▁강남	-10.8235
▁송신하는	-10.8236
▁출력부	-10.8251
▁방법들	-10.8252
▁행정부	-10.8254
짐	-10.8259
▁옷을	-10.8262
▁심각	-10.8262
▁이것에	-10.8262
▁슬	-10.8263
치는	-10.8265
▁가중	-10.8269
▁계기로	-10.827
▁기판을	-10.8272
45	-10.8274
들로부터	-10.8275
▁둘러싸	-10.8276
▁방향성	-10.8276
되자	-10.8284
▁달려	-10.8284
▁대표가	-10.8289
▁물에	-10.8292
▁억제제	-10.8293
▁이전의	-10.8294
구를	-10.8298
▁국제사회	-10.8298
▁참석해	-10.8299
▁쓴	-10.8304
▁곤란	-10.8305
▁이하로	-10.8309
▁거절	-10.8309
▁학생이	-10.8313
▁대학생	-10.8317
▁말씀해	-10.8318
▁소방	-10.832
▁사실은	-10.8324
▁중계	-10.8325
드리	-10.8325
드릴게요	-10.8329
▁만기	-10.8332
▁행위에	-10.8334
▁수급	-10.8334
▁증여	-10.8336
닉	-10.8337
▁같네요	-10.8339
▁질병관리본부	-10.8339
▁금감원	-10.8339
▁티켓	-10.8339
▁탐구	-10.834
▁압연	-10.834
▁가죽	-10.834
▁마시	-10.834
▁고찰	-10.8341
단을	-10.8341
▁IC	-10.8341
점으로	-10.8342
▁서술	-10.8342
▁드러났다	-10.8343
▁만남	-10.8344
▁좌측	-10.8344
▁시리아	-10.8344
▁서구	-10.8347
▁된다고	-10.8348
▁침체	-10.835
▁에볼라	-10.8351
▁다공성	-10.8352
허가	-10.8355
▁명예	-10.8356
il	-10.8356
▁절제	-10.8359
(13	-10.8361
▁감상	-10.8362
▁시사점	-10.8364
▁수렴	-10.8366
▁소아	-10.8367
▁바뀌	-10.8368
▁지형	-10.837
흥	-10.8373
▁구성한다	-10.8375
▁동일하게	-10.8376
▁사회에서	-10.8381
▁층은	-10.8382
Z	-10.8389
▁화폐	-10.8392
다운	-10.8392
▁친구들	-10.8396
▁Q	-10.8397
RS	-10.8397
(22	-10.8398
그림	-10.8401
5%	-10.8403
(31	-10.841
▁부족하다	-10.8415
하였을	-10.8416
▁있었다고	-10.8417
▁확인한	-10.8418
▁국가에서	-10.8422
▁셀들	-10.8422
▁착	-10.8423
▁비전	-10.8423
▁압축기	-10.8423
업자	-10.8427
▁도심	-10.8427
▁평가하는	-10.843
함이	-10.8433
됐고	-10.8435
▁아연	-10.844
가스	-10.844
(23	-10.8444
▁배우자	-10.8448
▁김치	-10.8458
▁출력한다	-10.8462
재료	-10.8463
끼리	-10.8468
▁의미하는	-10.8471
▁DC	-10.8473
▁후면	-10.8478
선수	-10.8487
하다가	-10.8495
▁머물	-10.8495
동안	-10.8496
▁낮다	-10.8496
▁제외하고	-10.8497
▁위치와	-10.8504
▁선정된	-10.8504
원에	-10.8506
▁중에는	-10.8509
▁법원	-10.8512
겠다고	-10.8513
교회	-10.8515
~1	-10.8515
▁질의	-10.8522
▁조화	-10.8523
▁않아도	-10.8523
▁음식이	-10.8528
▁중동	-10.8528
▁광범위	-10.8529
닌	-10.8531
AP	-10.8534
▁제어하기	-10.8535
이지	-10.8537
룡	-10.8537
▁스페이서	-10.8538
윈	-10.8538
▁콘크리트	-10.8539
▁슬러리	-10.8539
▁밀폐	-10.8539
▁색깔	-10.8539
▁늘어날	-10.8539
▁로컬	-10.8539
▁실습	-10.8541
▁약관	-10.8541
▁탁월	-10.8543
▁가을	-10.8543
▁추억	-10.8544
▁원통형	-10.8544
▁채취	-10.8545
▁마친	-10.8545
▁간극	-10.8547
▁앉	-10.8548
▁향한	-10.8549
받아	-10.855
▁소모	-10.8555
▁자회사	-10.8555
▁70%	-10.8555
▁금융기관	-10.8558
▁임명	-10.856
▁지주	-10.857
▁수단이	-10.8572
29	-10.8574
▁시리즈	-10.8575
▁정책에	-10.8576
▁주력	-10.8576
▁수준에서	-10.8576
었	-10.8577
▁랙	-10.8578
성은	-10.8578
▁관리가	-10.8581
▁개별적으로	-10.8582
▁0.01	-10.8584
▁반면에	-10.8585
▁개발에	-10.8587
▁신중	-10.8591
판을	-10.8591
춘	-10.8595
▁열고	-10.8597
이었습니다	-10.8598
시즌	-10.86
었어요	-10.8604
방송	-10.8604
▁구조로	-10.8605
▁자라	-10.8607
nm	-10.8612
▁아래에	-10.8617
▁마크	-10.8618
FC	-10.8621
▁맞추어	-10.8626
▁관련해서	-10.8629
중량	-10.8629
▁높이기	-10.8634
▁원가	-10.8637
있	-10.8639
▁54	-10.8642
▁화제	-10.8645
▁편성	-10.8646
▁음식점	-10.8646
▁숙	-10.865
6%	-10.8651
▁배출량	-10.8651
▁때도	-10.8652
▁정상회담	-10.8654
▁점유	-10.8663
▁치열	-10.8664
▁사건이	-10.8669
▁퍼	-10.8671
▁빠르고	-10.8675
더라고요	-10.8676
48	-10.8677
▁입국	-10.868
▁일어나	-10.8684
▁짐	-10.8684
▁맛있는	-10.8687
▁감소시키는	-10.8687
가량	-10.869
1%	-10.869
였습니다	-10.8691
어질	-10.8692
▁편입	-10.8696
▁커플링	-10.8697
▁주장이	-10.8699
용으로	-10.87
▁실정이	-10.8701
▁전극과	-10.8702
▁연결부	-10.8704
▁당일	-10.8712
▁계절	-10.8714
▁곳곳에	-10.8717
▁체크	-10.8717
▁늘어난	-10.872
▁걸림	-10.8721
도이다	-10.8722
9)	-10.8723
▁측의	-10.8724
원으로	-10.8728
욱	-10.873
▁기도	-10.873
▁인식하고	-10.8732
22	-10.8733
▁이루어져	-10.8739
▁사실이다	-10.8741
▁돈이	-10.8742
눌	-10.8742
▁무릎	-10.8743
▁계면활성제	-10.8743
▁내렸다	-10.8743
▁부총리	-10.8743
도널드	-10.8743
▁사무총장	-10.8743
▁폐렴	-10.8743
▁키보드	-10.8743
▁척추	-10.8743
▁볼륨	-10.8743
▁태풍	-10.8744
▁나타날	-10.8744
▁일상생활	-10.8744
▁동참	-10.8744
▁야외	-10.8745
▁논쟁	-10.8745
▁감압	-10.8745
▁새벽	-10.8746
▁교반	-10.8746
▁폭염	-10.8746
▁합류	-10.8747
▁연락처	-10.8747
▁알리는	-10.8747
페닐	-10.8749
▁(3)	-10.8749
▁외관	-10.8749
▁특징이	-10.875
▁공익	-10.875
▁밝히고	-10.8751
▁유용하다	-10.8755
▁배정	-10.8758
▁『	-10.8759
▁흘러	-10.876
▁지니고	-10.8761
▁발견된	-10.8762
▁정전	-10.8763
휴	-10.8763
▁연구들	-10.8764
▁송신기	-10.8769
월에는	-10.8769
▁창조	-10.877
▁개관	-10.877
▁낮게	-10.8774
▁출판	-10.8774
▁달성하기	-10.878
라운드	-10.8781
로서는	-10.8783
▁이틀	-10.8785
▁차체	-10.8788
▁복부	-10.879
▁예금	-10.8794
립니다	-10.8795
▁수단과	-10.8797
▁특성상	-10.8799
관이	-10.8799
핵	-10.8799
▁영역과	-10.8802
맛	-10.8803
▁뿐이다	-10.8803
죽	-10.8804
▁열화	-10.8809
▁느낌이	-10.881
▁의문	-10.8812
▁이용되는	-10.8812
▁눈물	-10.8816
▁다루는	-10.8818
진단	-10.8819
▁인정할	-10.8821
▁어디에	-10.8822
as	-10.8824
▁초과하는	-10.8824
집단	-10.8829
▁수탁자	-10.8831
▁검	-10.8831
▁전신	-10.8837
8%	-10.8838
청구	-10.8838
▁보건부	-10.8841
규제	-10.8843
▁보호하기	-10.8844
▁진행하는	-10.8844
▁해결하는	-10.8847
▁직접적으로	-10.8849
트리	-10.885
▁용지	-10.885
국제	-10.8852
▁확보할	-10.8857
▁저렴	-10.8858
▁움직이는	-10.8862
▁측정한	-10.8864
▁느낌	-10.8864
쇄	-10.887
▁생성물	-10.8872
▁시각적	-10.8873
▁품	-10.8874
▁총장	-10.8886
▁시사	-10.8891
▁기능성	-10.8891
▁지상	-10.8894
▁가격에	-10.8896
었음을	-10.8896
▁돌기	-10.8898
▁드는	-10.8899
▁하거나	-10.8901
DL	-10.8911
ha	-10.8913
▁증상을	-10.8913
▁뒷받침	-10.8914
▁투자자들	-10.8914
형태	-10.8914
이상	-10.8926
▁처리된	-10.8927
▁탄력	-10.8929
▁화학적	-10.8933
▁서부	-10.8936
▁의료기관	-10.8936
▁시간과	-10.8941
▁관리할	-10.8943
용품	-10.8944
▁결의	-10.8946
▁흡인	-10.8948
랄	-10.8949
▁겪는	-10.8951
▁앨범	-10.8951
▁프로그래밍	-10.8951
킵	-10.8951
▁건강보험	-10.8951
(600)	-10.8952
▁소멸	-10.8952
▁멋진	-10.8953
▁첫째	-10.8953
▁체류	-10.8953
▁있으시면	-10.8953
▁코너	-10.8954
▁매립	-10.8954
리가	-10.8955
▁편향	-10.8955
▁모션	-10.8955
▁매입	-10.8956
▁운항	-10.8956
▁기침	-10.8957
▁있죠	-10.8958
▁플러그	-10.8958
▁건수	-10.8958
▁당선	-10.8958
▁보인	-10.896
▁배포	-10.896
▁배려	-10.8961
사진	-10.8961
▁크기는	-10.8961
에요	-10.8962
(104)	-10.8963
▁80%	-10.8963
▁소상공인	-10.8965
▁배열된	-10.8969
▁원칙적으로	-10.8969
38	-10.897
식으로	-10.8971
안정	-10.8971
▁증세	-10.8972
시로	-10.8973
▁예고	-10.8973
▁태그	-10.8976
티브	-10.8977
▁오페라	-10.8977
▁FTA	-10.8977
▁세계에	-10.8982
▁학업	-10.8982
조정	-10.8983
▁인용	-10.8983
▁유선	-10.8984
▁전담	-10.8985
춤	-10.8987
▁접점	-10.8989
▁정맥	-10.8989
▁손에	-10.8992
▁북부	-10.8992
▁다문화	-10.8993
▁없어서	-10.8993
셨나요	-10.8993
▁사항에	-10.8996
▁아니야	-10.8996
∼1	-10.8997
▁느끼	-10.8999
▁탑승	-10.9001
▁상사	-10.9001
해주는	-10.9001
▁계시	-10.9002
▁차분	-10.9004
▁켜	-10.9008
▁원자력	-10.9011
▁지역으로	-10.9014
▁여건	-10.9015
▁밝	-10.9015
사용	-10.9015
펜	-10.9015
▁시작할	-10.9018
쇼	-10.9019
의료	-10.902
▁미술관	-10.9026
▁시원	-10.9026
채권	-10.9029
▁얻는다	-10.9032
▁아마	-10.9032
해지는	-10.9032
▁관계에서	-10.9034
42	-10.9041
▁정체	-10.9044
▁대리	-10.9044
▁공학	-10.9044
▁접지	-10.9045
▁식별하는	-10.9046
▁주에	-10.9048
▁학문	-10.9048
56	-10.9048
▁타임	-10.9049
▁샤	-10.9049
▁감염된	-10.905
발생	-10.9063
▁나타내었	-10.9067
▁팩	-10.9071
▁우위	-10.9073
려는	-10.9074
(8	-10.9074
▁뛰	-10.9079
▁걸린	-10.9081
▁것일	-10.9083
36	-10.9084
▁방향에서	-10.9084
▁입을	-10.9085
▁준비해	-10.9086
하셔야	-10.9092
▁결정하고	-10.9094
▁강남구	-10.9097
▁기한	-10.9097
-4	-10.9099
▁취하	-10.9104
▁교육부	-10.9105
▁고소	-10.9106
▁중지	-10.9106
▁더미	-10.9107
▁추구하는	-10.9108
▁대조군	-10.9113
▁따뜻	-10.9116
▁강성	-10.912
▁설명하는	-10.9122
▁전통적	-10.9127
느냐	-10.9129
부로	-10.9132
▁공개된	-10.9134
▁들어간	-10.9137
▁말단	-10.9138
▁대통령과	-10.9138
▁무관	-10.9141
▁살펴본	-10.9141
▁공지	-10.9145
▁포착	-10.9147
▁출산	-10.9152
▁인식이	-10.9153
▁결정에	-10.9157
▁과거에	-10.9159
▁키우	-10.9159
님이	-10.9161
▁취임	-10.9161
칙	-10.9163
▁끊임없	-10.9164
▁스웨덴	-10.9164
▁유병률	-10.9164
▁즐겨	-10.9164
▁칼슘	-10.9164
▁며칠	-10.9164
(240)	-10.9164
(250)	-10.9164
▁납품	-10.9164
▁보건당국	-10.9164
▁공진	-10.9165
▁우선순위	-10.9165
▁직교	-10.9167
▁않았지만	-10.9167
▁모두에게	-10.9167
▁상응하는	-10.9172
▁유의미	-10.9172
▁연구결과	-10.9174
▁당부했다	-10.9174
▁도매	-10.9175
▁재현	-10.9176
시죠	-10.9177
▁고령화	-10.9177
▁없지만	-10.9178
▁증강	-10.9178
IN	-10.9179
SS	-10.9179
▁원주	-10.9179
▁들었다	-10.918
▁내시경	-10.9181
PC	-10.9184
▁심층	-10.9184
대에	-10.9184
▁방향족	-10.9184
▁액션	-10.9184
할수록	-10.9186
▁부여하는	-10.9188
▁학부모님	-10.9189
▁음주	-10.9189
▁한글	-10.9191
▁화면에	-10.9191
개소	-10.9193
▁획득된	-10.9193
▁유가	-10.9197
▁이주	-10.9199
▁증후군	-10.92
릭	-10.9203
슈	-10.9205
본부	-10.9206
으니	-10.9206
▁취약	-10.9206
▁식단	-10.9207
▁관련성	-10.9207
▁염색	-10.921
▁이로써	-10.9212
▁기둥	-10.9213
▁경화성	-10.9214
▁견인	-10.9216
▁변수들	-10.9219
▁동부	-10.9219
▁경비	-10.9219
▁기동	-10.9219
가구	-10.922
▁톤	-10.922
▁이곳에	-10.922
▁시점에서	-10.9223
▁적어	-10.9227
콜	-10.9229
▁빅	-10.9229
▁퇴	-10.9229
▁단서	-10.923
▁쓰고	-10.9232
▁병력	-10.9239
기록	-10.9241
▁내부에서	-10.9242
보건	-10.9243
경영	-10.9245
▁진행한다	-10.9248
▁PD	-10.925
하되	-10.9252
▁일제	-10.9253
▁브	-10.9254
▁도서관	-10.9257
▁주관적	-10.926
▁이해하고	-10.9262
▁사물	-10.9264
▁실력	-10.9266
민이	-10.9272
▁인정하는	-10.9275
▁바이	-10.9278
AI	-10.9283
▁교실	-10.9286
▁되는데	-10.9289
▁미친	-10.9291
교통	-10.9293
되었지만	-10.9295
하네요	-10.9299
▁찍어	-10.9301
▁요구되는	-10.9303
▁상품이	-10.9307
▁아니한	-10.9311
▁설치하고	-10.9312
팀이	-10.9313
▁몸에	-10.9313
▁때부터	-10.9318
▁건강을	-10.9318
▁제조하기	-10.9322
단의	-10.9325
▁수용성	-10.9326
▁실시하고	-10.9326
▁44	-10.9333
▁오리	-10.9334
▁43	-10.9335
체제	-10.9338
▁서쪽	-10.9339
회를	-10.9341
▁소비자가	-10.9341
▁오른	-10.9345
▁조절하는	-10.9346
▁세무	-10.9346
▁광역	-10.9347
방안	-10.9348
▁세워	-10.935
▁맨	-10.935
▁기다리	-10.935
▁하방	-10.9356
▁전달하는	-10.9362
▁질문이	-10.9362
단이	-10.9365
▁보충	-10.9366
▁도와주	-10.9369
▁모으	-10.9373
▁계획이	-10.9376
×	-10.9378
▁왔	-10.9381
옵	-10.9381
▁카테고리	-10.9381
▁햅틱	-10.9381
호서식	-10.9381
▁굽힘	-10.9381
▁리더십	-10.9381
▁도와드릴까요	-10.9381
▁충북	-10.9381
▁동아시아	-10.9382
▁유럽연합	-10.9382
▁출현	-10.9383
▁세미나	-10.9383
(42)	-10.9384
▁없으며	-10.9385
▁구글	-10.9385
속도	-10.9387
▁세균	-10.9388
▁유일	-10.9389
▁모델링	-10.9389
이랑	-10.939
▁조류	-10.9394
▁상반기	-10.9394
▁슬롯	-10.9396
▁그럼에도	-10.9396
▁파산	-10.9397
(52)	-10.9401
▁고발	-10.9402
▁실시예들에	-10.9402
▁고르	-10.9405
▁전망된다	-10.9406
▁전술한	-10.9407
▁후에는	-10.9411
▁전염병	-10.9412
▁파형	-10.9412
▁40%	-10.9413
해졌다	-10.9417
▁RF	-10.9421
▁저장소	-10.9424
▁할지	-10.9426
▁민주당	-10.9427
▁전위	-10.9427
▁박리	-10.9429
(17)	-10.9429
▁이루어지지	-10.9432
▁역할이	-10.9432
▁시점에	-10.9434
▁응력	-10.9434
▁적합하다	-10.9436
▁법원이	-10.9437
▁극장	-10.9443
▁없으면	-10.9444
de	-10.9444
▁안료	-10.9446
▁후보자	-10.9446
▁공연이	-10.9448
▁본래	-10.9453
룸	-10.9453
▁과도	-10.9456
홈	-10.9458
▁강조하는	-10.9459
▁검진	-10.9461
주간	-10.9465
▁추가적으로	-10.9466
준다	-10.9467
▁참여자	-10.9468
방향으로	-10.9472
▁경보	-10.9472
▁담고	-10.9478
▁주장한다	-10.9481
▁Al	-10.9481
▁톱	-10.9482
▁세력	-10.9483
▁여성들	-10.9485
▁다층	-10.9487
▁주민들이	-10.9487
▁고개	-10.9488
▁기반한	-10.9489
▁개인적	-10.9493
▁말까지	-10.9493
et	-10.9494
범위	-10.95
▁강조하고	-10.9505
사회적	-10.9506
등급	-10.9511
▁올라가	-10.9513
▁이상으로	-10.9515
▁고령	-10.9518
▁콜	-10.9519
었는데	-10.9521
▁날개	-10.9522
▁행복한	-10.9522
▁보전	-10.9522
▁유지하면서	-10.9524
▁개발하는	-10.9524
▁생성되는	-10.953
▁나타나지	-10.953
▁모아	-10.9533
▁재료는	-10.9534
▁수집된	-10.9534
▁즐기는	-10.954
▁중소	-10.954
작용	-10.954
롱	-10.9544
▁도덕적	-10.9547
▁그것들	-10.955
혁신	-10.955
▁지휘	-10.9551
▁들어가는	-10.9554
▁소금	-10.9556
스틱	-10.9556
▁원고는	-10.9557
▁무한	-10.9559
▁보지	-10.9562
당국	-10.9563
▁비가	-10.9566
▁그룹에서	-10.9567
▁걸리	-10.9568
시켰	-10.957
▁하루에	-10.9575
▁두께가	-10.9576
▁했다고	-10.9577
면서도	-10.9577
▁이끌어	-10.9579
▁요약	-10.9587
▁병원에	-10.9587
▁때에	-10.9588
게임	-10.9597
삭	-10.9601
▁조회	-10.9602
▁핸들	-10.9602
딘	-10.9603
▁다이어트	-10.9603
▁덮는	-10.9603
▁무작위	-10.9603
▁네이버	-10.9603
▁김정은	-10.9604
▁실리카	-10.9604
▁의사소통	-10.9604
▁쿠션	-10.9604
▁캡처	-10.9604
▁힌지	-10.9604
▁클립	-10.9604
▁HCC	-10.9605
▁아니에요	-10.9605
▁허브	-10.9605
▁1998	-10.9605
▁가맹점	-10.9605
▁투영	-10.9606
▁설치하는	-10.9607
▁연말	-10.9608
▁그랬	-10.9608
▁뚫	-10.9608
▁임무	-10.9608
▁업	-10.961
▁로마	-10.9611
▁직사각형	-10.9612
▁대응할	-10.9612
▁적절히	-10.9613
▁거친	-10.9615
▁수학적	-10.9617
▁옛	-10.9617
▁피의자	-10.9618
▁트레이닝	-10.9618
▁연신	-10.9622
▁근처	-10.9623
▁정책적	-10.9623
▁니	-10.9623
▁어린이집	-10.9628
▁콜레스테롤	-10.9628
이었고	-10.9628
▁머신	-10.9629
▁넣	-10.9629
▁보아	-10.963
▁사적	-10.9633
부에서	-10.9637
▁경찰이	-10.9637
사유	-10.964
▁들여	-10.9642
▁기소	-10.9643
▁정서	-10.9643
▁고려해야	-10.9644
안전하게	-10.9645
▁퍼지	-10.9646
▁제시된	-10.9648
▁상관없이	-10.965
▁부실	-10.9651
굴	-10.9651
량은	-10.9651
▁내용으로	-10.9653
선이	-10.9654
▁목소리를	-10.9656
▁툴	-10.9657
부서	-10.9657
▁부처	-10.9657
▁발생되는	-10.9657
▁소년	-10.9659
▁집회	-10.966
맥	-10.9661
▁알리	-10.9662
돼야	-10.9663
▁고지	-10.9663
▁무인	-10.9663
▁수용액	-10.9665
▁향상시키는	-10.9667
▁서서	-10.9668
▁모르는	-10.9669
▁전기차	-10.9671
▁테스트를	-10.9674
제한	-10.968
엄	-10.9681
▁UE	-10.9681
국의	-10.9682
구역	-10.9683
해주시면	-10.9683
▁방위	-10.9687
▁로우	-10.9688
중앙	-10.9689
자인	-10.969
▁개인이	-10.9692
▁언	-10.9693
▁전단	-10.9695
▁정당한	-10.9696
▁정기적	-10.9707
▁편이다	-10.9709
▁기대감	-10.971
레이트	-10.9719
▁인코딩	-10.972
▁평가할	-10.9722
▁했고	-10.9723
▁파지	-10.9725
이익	-10.9728
▁후에도	-10.9728
▁세제	-10.973
모형	-10.973
▁자리에	-10.973
▁불소	-10.9732
▁이념	-10.9732
▁장관이	-10.9735
▁차량이	-10.9736
▁140	-10.9737
▁37	-10.974
정의	-10.9741
▁개념이	-10.9741
57	-10.9746
▁그중	-10.9747
▁공개했다	-10.9749
▁탄화수소	-10.9754
▁원조	-10.9762
학자	-10.9772
럴	-10.9775
쳤다	-10.9776
께서	-10.978
▁수신부	-10.9781
▁경도	-10.9782
▁휘	-10.9789
▁당국이	-10.9792
▁초기에	-10.9794
▁사원	-10.9795
IC	-10.9795
▁내주	-10.9797
▁프로세서는	-10.9802
▁수용하는	-10.9803
▁돕는	-10.9804
▁이루어	-10.9805
▁신축	-10.9806
▁부재는	-10.9808
▁핸드	-10.9811
▁위험한	-10.9818
▁묵	-10.9818
인에게	-10.9819
명과	-10.982
▁구비된	-10.982
재단	-10.9821
▁극단	-10.9822
층이	-10.9823
▁변화하는	-10.9824
▁위치할	-10.9824
▁태양전지	-10.9824
▁우울	-10.9824
▁기술로	-10.9824
레이	-10.9824
컬	-10.9824
▁징역	-10.9825
▁모자	-10.9825
잉	-10.9827
랜드	-10.9828
뇨	-10.9829
▁설계된	-10.983
▁지원하고	-10.983
▁가벼운	-10.9831
▁엘리베이터	-10.9831
▁열렸다	-10.9831
▁유튜브	-10.9831
▁자유한국당	-10.9831
▁크리스마스	-10.9831
렛	-10.9831
▁좋겠다	-10.9831
▁모른다	-10.9831
▁즐거움	-10.9831
▁가끔	-10.9831
▁대다수	-10.9831
▁신용카드	-10.9831
▁페달	-10.9831
▁침투	-10.9832
▁환송	-10.9832
▁크로스	-10.9833
▁언니	-10.9833
▁충실	-10.9833
▁성숙	-10.9833
▁몰드	-10.9834
▁퇴원	-10.9834
▁끼워	-10.9835
▁보건복지부	-10.9836
▁임계값	-10.9836
▁기업과	-10.9837
▁판별	-10.9837
▁빌	-10.9838
▁야간	-10.9839
▁합산	-10.9842
▁승객	-10.9844
▁동네	-10.9845
▁워싱턴	-10.9846
▁부양	-10.9846
▁맥주	-10.9846
▁의복	-10.9847
▁전반에	-10.9848
▁장르	-10.985
▁소중	-10.9852
▁클로	-10.9852
▁이용한다	-10.9853
▁체력	-10.9854
▁부르	-10.9859
▁역대	-10.986
▁줄이고	-10.9863
▁봉쇄	-10.9865
▁NC	-10.9871
▁코치	-10.9873
실에서	-10.9874
▁장기적으로	-10.9877
▁Fe	-10.9879
TE	-10.988
▁냉	-10.988
▁약학적	-10.9885
먼	-10.9886
▁하중	-10.9888
▁민주	-10.9888
▁수행하여	-10.989
▁아직까지	-10.989
▁아세안	-10.9896
신문	-10.9896
▁600	-10.9896
자본	-10.9897
▁외상	-10.9897
시아	-10.9898
▁기술과	-10.9899
▁지분율	-10.9899
▁정화	-10.9904
▁차이점	-10.9907
▁생태	-10.9908
▁검출기	-10.9913
▁머리를	-10.9915
▁상당수	-10.9917
천여	-10.9918
▁내역	-10.9918
규모	-10.9919
합니까	-10.9919
▁듯한	-10.9919
팩	-10.992
▁보입니다	-10.992
그런데	-10.9921
FFF	-10.9922
등록	-10.9923
▁무시	-10.9924
2-	-10.9925
▁교육에	-10.9927
평균	-10.9929
무역	-10.993
▁해체	-10.9936
▁Si	-10.9942
▁완	-10.9958
▁항소	-10.9966
▁전송한다	-10.9969
▁시트를	-10.9975
대책	-10.9975
▁담겨	-10.9977
▁슈	-10.9978
됐지만	-10.9978
▁사람과	-10.9981
▁작용하는	-10.9985
레스	-10.9985
▁고가	-10.9986
▁남쪽	-10.9987
▁느끼는	-10.9988
▁보낸	-10.9989
위원장	-10.999
▁청구권	-10.9993
간다	-10.9997
▁생각하고	-10.9999
▁자아	-11.0002
▁예상되는	-11.0006
ation	-11.0006
기판	-11.001
at	-11.0011
째	-11.0013
▁건강에	-11.0014
▁불필요	-11.0014
▁II	-11.0016
▁r	-11.0017
▁귀사에서	-11.0018
▁남한	-11.0021
▁받아들이	-11.0026
▁불순물	-11.0027
▁가능해	-11.003
▁자동화	-11.0033
허	-11.0035
▁달에	-11.004
▁남성이	-11.004
▁잔류	-11.0047
밥	-11.0049
▁외부에	-11.0049
투어	-11.005
▁턴	-11.005
▁학술	-11.0051
첩	-11.0052
us	-11.0052
하시기	-11.0054
▁간식	-11.0062
▁것들	-11.0062
▁스케줄	-11.0063
▁뚜껑	-11.0063
▁웨어러블	-11.0063
▁적외선	-11.0063
▁카트리지	-11.0063
▁트렌드	-11.0063
▁포트폴리오	-11.0063
▁항생제	-11.0063
▁태블릿	-11.0063
▁플렉서블	-11.0063
▁포지션	-11.0063
▁생략	-11.0063
▁치킨	-11.0064
▁비싸	-11.0064
▁스틸	-11.0065
▁시멘트	-11.0065
▁광섬유	-11.0065
▁우울증	-11.0065
이던	-11.0065
▁생물학적	-11.0065
▁없애	-11.0065
▁접목	-11.0066
▁대답	-11.0067
▁대칭	-11.0067
▁평양	-11.007
▁소재로	-11.007
▁비닐	-11.007
▁초등	-11.0071
▁나타냈다	-11.0071
▁야당	-11.0073
▁웃음	-11.0073
▁천공	-11.0074
▁수확	-11.0075
▁제한하는	-11.0076
▁독서	-11.0078
▁절연막	-11.0078
▁지나치	-11.0078
▁닭	-11.0078
▁계열	-11.0079
▁가사	-11.0079
▁매트	-11.008
장과	-11.008
▁실시예들에서	-11.0082
▁행사가	-11.0082
▁침대	-11.0083
▁뭐야	-11.0085
▁직면	-11.0085
▁더욱이	-11.0086
▁전북	-11.0087
▁종전	-11.0089
▁색소	-11.009
▁차지했다	-11.0091
과제	-11.0093
▁데이터와	-11.0093
▁해방	-11.01
▁지체	-11.0102
▁상측	-11.0103
▁안면	-11.0104
▁우선적으로	-11.0104
여서	-11.0105
▁나왔	-11.0106
▁아마도	-11.0106
▁실효성	-11.0107
▁틈	-11.0109
▁250	-11.0109
▁피막	-11.011
▁오빠	-11.0114
▁콩	-11.0115
전에	-11.0116
▁득점	-11.0119
▁항원	-11.0123
▁마치고	-11.0124
▁누리	-11.0125
▁개시되어	-11.0125
시간이	-11.0125
▁위조	-11.0126
▁그러면서	-11.0126
▁맥락에서	-11.0127
▁에틸렌	-11.0128
-5	-11.0129
▁번째로	-11.0132
▁준비한	-11.0132
사로	-11.0133
▁눈이	-11.0133
▁먹으면	-11.0134
32	-11.0141
▁반전	-11.0141
(1	-11.0143
▁벌금	-11.015
▁미소	-11.0151
ter	-11.0152
룰	-11.0153
알킬	-11.0153
▁모델이	-11.0154
짓	-11.0154
액은	-11.0154
핀	-11.0155
▁기분	-11.0158
프로그램	-11.0159
호텔	-11.0159
▁소개해	-11.016
▁검사에서	-11.0162
풀	-11.0163
ur	-11.0163
▁잡지	-11.0164
▁폭이	-11.0166
▁돼지	-11.0167
00°	-11.0167
▁유형에	-11.0168
▁증가한다	-11.0171
▁그러니까	-11.0175
▁전자기기	-11.0175
코드	-11.0176
▁유량	-11.018
개혁	-11.0183
EU	-11.0185
▁특징점	-11.0187
▁개념으로	-11.0188
▁분석은	-11.0199
▁α	-11.0202
일본	-11.0204
▁내고	-11.0205
▁우수하고	-11.0209
▁수지층	-11.021
▁그들에게	-11.0213
▁광주시	-11.0214
▁불안정	-11.0215
▁시의	-11.0217
▁너는	-11.0222
▁남북한	-11.0225
▁CC	-11.0227
▁생활을	-11.0227
▁고양이	-11.0228
보다도	-11.0229
28	-11.0231
정신	-11.0235
▁우리나라에서	-11.0236
▁원단	-11.0236
▁이익이	-11.024
▁보내는	-11.0241
▁지도자	-11.0243
▁55	-11.0245
▁전자기	-11.0245
▁진전	-11.0246
▁유닛은	-11.0247
▁간격으로	-11.0249
▁성취	-11.0251
▁종속	-11.0251
하니	-11.0252
▁준비하는	-11.0256
▁어디에서	-11.0257
가족	-11.0262
▁지원한다	-11.027
▁동쪽	-11.027
위로	-11.0273
▁총회	-11.0273
▁멀리	-11.0274
▁궁금	-11.0274
▁설득	-11.0276
▁연구자	-11.0276
였	-11.0276
▁56	-11.0279
수익	-11.0281
▁단말은	-11.0282
▁구매할	-11.0291
▁화이트	-11.0294
▁변화와	-11.0295
▁중독	-11.0295
▁동맹	-11.0297
▁받으면	-11.0297
웅	-11.03
▁네덜란드	-11.0301
▁인버터	-11.0301
▁클램핑	-11.0301
▁하이브리드	-11.0301
▁습득	-11.0301
▁페이스북	-11.0301
▁런던	-11.0301
▁에어컨	-11.0302
▁쇼핑몰	-11.0302
▁피처	-11.0302
▁임상시험	-11.0302
▁성격이	-11.0302
▁프로브	-11.0303
▁커터	-11.0303
▁농축	-11.0304
▁욕구	-11.0304
▁추측	-11.0306
▁선호하	-11.0307
▁어렵다는	-11.0308
▁닿	-11.031
▁만든다	-11.0311
카르	-11.0311
▁여파	-11.0311
▁액상	-11.0313
▁일대	-11.0315
로소	-11.0317
▁분이	-11.0317
▁충남	-11.0318
▁방문할	-11.0318
▁촉구했다	-11.0319
▁중앙은행	-11.0324
▁불포화	-11.0325
▁가정에서	-11.0327
▁응원	-11.0329
▁대항	-11.0329
▁얻었다	-11.0329
▁기울기	-11.0331
▁축선	-11.0332
▁제조업체	-11.0335
12)	-11.0335
▁고위	-11.0336
▁넣고	-11.0336
소리	-11.0337
▁취득세	-11.0338
▁일일	-11.0338
▁수십	-11.0338
▁습관	-11.034
▁로그인	-11.034
에게도	-11.0342
▁연구개발	-11.0344
▁식량	-11.0347
매체	-11.0351
여성	-11.0352
막을	-11.0353
▁행위자	-11.0354
▁인장	-11.0354
▁게재	-11.0355
▁심한	-11.0356
▁소결	-11.0356
▁GDP	-11.0356
▁면에	-11.0357
▁구멍이	-11.0358
▁중복	-11.0359
▁마시고	-11.0361
▁적게	-11.0361
▁제공하며	-11.0364
▁다를	-11.0367
▁수영	-11.0369
MS	-11.0371
▁척도	-11.0372
시겠습니까	-11.0386
▁조건으로	-11.0392
▁참여하고	-11.0392
▁헤어	-11.0394
▁해당하는지	-11.0396
▁바라보	-11.0396
벨	-11.0397
▁β	-11.0398
셋	-11.0399
빛	-11.0399
▁2.5	-11.0399
연합	-11.0401
▁사용에	-11.0401
α	-11.0401
힘	-11.0402
▁WHO	-11.0402
▁수축	-11.0403
▁구성하고	-11.0408
▁레이트	-11.0408
▁사망한	-11.0411
▁선택한	-11.0412
▁장치로부터	-11.0416
mg	-11.0416
▁억제하는	-11.0423
▁장치에서	-11.0423
▁보호하는	-11.0424
▁줄어들	-11.0428
▁시작한다	-11.0433
▁주실	-11.0437
▁않았고	-11.0438
화학	-11.0438
채널	-11.044
▁많았	-11.044
▁국장	-11.0441
▁고려하면	-11.0441
▁소자를	-11.0445
▁힘이	-11.0446
수지	-11.0448
▁소성	-11.0453
텐	-11.0458
▁제시한다	-11.046
▁포괄	-11.046
▁여부가	-11.0461
▁자리에서	-11.0461
▁알려주시	-11.0461
▁이해하는	-11.0468
▁휴	-11.0471
이닝	-11.0473
되었다고	-11.0475
▁출	-11.0484
▁180	-11.0485
▁액	-11.0487
▁구독	-11.049
▁세계적인	-11.0496
▁도관	-11.0497
▁내린	-11.0498
58	-11.0507
중심	-11.0508
▁여론	-11.0515
▁갑	-11.0517
▁추진하는	-11.0517
▁모드로	-11.0521
98	-11.0526
▁읽어	-11.0533
▁빈곤	-11.0535
▁대가	-11.0535
▁그렇다	-11.0537
▁채워	-11.0538
▁추이	-11.0542
▁임계	-11.0542
릿	-11.0543
멸	-11.0543
듯이	-11.0544
▁끌고	-11.0545
▁류현진	-11.0545
▁셔츠	-11.0545
▁피아노	-11.0545
▁나쁜	-11.0545
▁조인트	-11.0545
▁공소외	-11.0545
▁부직포	-11.0546
▁레이더	-11.0546
▁가져올	-11.0546
▁장난감	-11.0546
▁바퀴	-11.0547
▁탄생	-11.0547
▁메타데이터	-11.0548
▁무조건	-11.0549
▁차세대	-11.0549
▁계량	-11.055
▁덕트	-11.055
▁침입	-11.0551
▁수원	-11.0552
▁탐지	-11.0554
▁산림	-11.0554
▁두꺼	-11.0554
▁파트너십	-11.0554
▁증식	-11.0556
▁유력	-11.0557
19)	-11.0558
-6	-11.0558
▁아까	-11.0558
▁적재	-11.0561
▁중요합니다	-11.0561
▁소변	-11.0562
시장에서	-11.0563
▁끝까지	-11.0563
▁갭	-11.0565
살이	-11.0565
▁치유	-11.0566
▁리소스	-11.0566
▁진실	-11.0566
▁오프라인	-11.0569
▁호전	-11.057
▁미러	-11.0571
리와	-11.0573
▁미치고	-11.0575
▁주었다	-11.0578
▁노출된	-11.0578
▁회사와	-11.0579
▁노력하고	-11.0584
▁발광층	-11.0585
▁부모님	-11.0588
▁판단한다	-11.0588
▁놀라	-11.0588
▁선명	-11.0589
▁단층	-11.0589
▁용역	-11.059
▁학생들에게	-11.059
▁발견했다	-11.059
▁혼인	-11.0592
▁모델에	-11.0592
▁꾸	-11.0593
▁사회에	-11.0597
▁재미	-11.06
진흥	-11.06
청장	-11.0601
▁경관	-11.0601
▁반도체층	-11.0601
▁가기	-11.0603
국이	-11.0604
▁타이	-11.0605
▁손흥민	-11.0608
▁걱정하지	-11.0613
▁낮아	-11.0614
지금	-11.0614
단부	-11.0615
▁움직이	-11.0617
▁거래가	-11.062
▁물량	-11.0621
▁성과에	-11.0622
활동을	-11.0622
▁제공되고	-11.0623
(26	-11.0623
la	-11.0628
정도	-11.0628
쪽	-11.0629
▁생기	-11.063
▁마련했다	-11.0631
▁설치되는	-11.0632
▁2002	-11.0634
▁포함되지	-11.0635
미터	-11.0637
▁cm	-11.0638
으로부터의	-11.0638
▁과제로	-11.064
▁2001	-11.064
노동	-11.064
논	-11.0642
▁만들어졌	-11.0642
▁보행	-11.0646
▁피고가	-11.0648
하였는데	-11.0649
▁심판	-11.0649
위험	-11.065
밭	-11.0651
▁제한된	-11.0657
▁군대	-11.0658
▁의자	-11.066
▁정신적	-11.0665
보증	-11.0665
▁타워	-11.0667
▁수반	-11.0668
▁모르	-11.0671
▁원전	-11.0671
산이	-11.0675
▁해명	-11.0676
IS	-11.0677
▁i	-11.0679
▁제공됩니	-11.068
▁확인된	-11.0681
팬	-11.0681
▁수신한다	-11.0683
(21	-11.0688
▁당신과	-11.0692
▁존재할	-11.0695
▁높다고	-11.0703
해져	-11.0704
▁본인이	-11.0704
▁들어갈	-11.0708
▁이후에는	-11.0713
하에	-11.0713
▁물질이	-11.0713
44	-11.0714
▁외부로	-11.0717
▁용품	-11.0718
▁별개	-11.0726
▁연구자들	-11.0732
▁단원	-11.0735
일수록	-11.0735
여개	-11.0738
▁값에	-11.074
▁시작하는	-11.0744
십	-11.0745
▁뚜렷	-11.0747
▁입학	-11.0753
▁발전기	-11.0755
▁이동할	-11.0755
▁문제의	-11.0756
▁축방향	-11.0758
▁부분과	-11.076
▁개선하기	-11.076
▁시내	-11.076
▁올린	-11.0761
▁의학	-11.0761
%)	-11.0767
▁메시	-11.0772
▁외주	-11.0773
▁승강	-11.0776
▁필요에	-11.0776
▁경감	-11.0777
▁출입	-11.0778
▁풀어	-11.0779
서비스를	-11.0779
▁잊	-11.0781
▁정규	-11.0783
▁깨	-11.0786
▁검출하고	-11.0787
켓	-11.0788
▁명백	-11.0791
▁플랜지	-11.0791
▁도덕	-11.0792
▁예전	-11.0793
▁컨버터	-11.0795
▁쿼리	-11.0795
▁원내대표	-11.0795
▁토큰	-11.0795
▁오프셋	-11.0795
▁기록한	-11.0795
▁그래핀	-11.0795
▁일관성	-11.0796
▁스테이션	-11.0796
▁에테르	-11.0796
▁CPU	-11.0796
▁터빈	-11.0796
단은	-11.0796
▁국회의원	-11.0796
▁교통사고	-11.0796
▁긴밀	-11.0796
▁좋겠어요	-11.0797
▁전세	-11.0797
▁소녀	-11.0798
▁달라질	-11.0799
▁친절	-11.0799
▁리더	-11.0801
▁베네수엘라	-11.0801
▁결의안	-11.0801
▁이동통신	-11.0801
심사	-11.0802
느	-11.0802
▁모순	-11.0802
▁지역이	-11.0803
▁보아야	-11.0805
▁아니지만	-11.0805
▁묘사	-11.0806
▁라디오	-11.0808
▁경질	-11.0808
드는	-11.0809
▁촉구	-11.0811
연맹	-11.0811
(121)	-11.0812
▁잡음	-11.0813
▁토출	-11.0814
▁값들	-11.0815
▁화가	-11.0815
▁이어지고	-11.0815
▁소매	-11.0815
▁생각해요	-11.0815
▁기독교	-11.0815
▁자는	-11.0815
▁트럭	-11.0815
▁더불어민주당	-11.0819
(34)	-11.0821
▁전처리	-11.0821
▁권위	-11.0822
(41)	-11.0823
▁상용화	-11.0824
▁관찰되었다	-11.0826
▁차트	-11.0826
▁영구	-11.0827
계의	-11.0829
(33)	-11.083
▁제기되	-11.083
▁포함하지	-11.0831
해졌	-11.0831
▁교부	-11.0831
▁이윤	-11.0831
▁일부분	-11.0832
▁요소로	-11.0832
▁입력에	-11.0833
▁절대적	-11.0836
▁올해는	-11.0837
보기	-11.0838
▁했을	-11.0843
건의	-11.0844
▁키트	-11.0845
▁거두	-11.0846
▁아래로	-11.0847
▁경쟁이	-11.0853
▁뷰	-11.0853
▁법관	-11.0858
▁강화하고	-11.0858
▁내내	-11.0861
소비	-11.0862
▁리조트	-11.0863
▁점포	-11.0864
▁심볼	-11.0865
▁참석했다	-11.0868
▁단계로	-11.0871
▁발생기	-11.0873
▁대하여는	-11.0877
lu	-11.0877
▁증가하였다	-11.0878
▁넘어가	-11.088
찰	-11.0881
(19)	-11.0887
인권	-11.0889
▁되며	-11.0891
▁자재	-11.0897
TI	-11.0897
▁인정받	-11.0899
▁최상	-11.09
짝	-11.0903
▁허용하는	-11.0904
▁일방	-11.0908
▁족	-11.0909
BBB	-11.0909
▁유발하는	-11.091
▁파악하는	-11.0912
▁신호들	-11.0914
▁자금이	-11.0916
▁받았고	-11.0919
▁선전	-11.0919
요인	-11.0921
머리	-11.0925
▁콘	-11.0926
금지	-11.0928
드린	-11.0931
▁만일	-11.094
▁약정	-11.0941
▁봉사	-11.0942
▁실체	-11.0951
베이	-11.0954
▁사용되었다	-11.0961
▁통행	-11.0961
사이	-11.0962
▁부지	-11.0967
▁1.5	-11.0967
▁분석하는	-11.097
▁감지하는	-11.0972
법원	-11.0974
▁상하이	-11.0979
▁하향	-11.098
▁후기	-11.0982
▁타자	-11.0983
▁비율로	-11.0994
하셨	-11.0996
이거	-11.1002
었어	-11.1006
▁마찬가지	-11.1008
겠네요	-11.1009
▁일측	-11.101
▁~	-11.1012
▁양면	-11.1015
▁폭을	-11.1016
▁밖으로	-11.1016
▁참여해	-11.1018
▁보내주시	-11.1019
▁Cu	-11.1021
▁무엇인가	-11.1022
▁접촉하는	-11.1025
▁자연스러	-11.1027
▁곳을	-11.1028
보고	-11.1029
행정	-11.103
▁대변	-11.1033
대사	-11.1034
하죠	-11.1036
▁타격	-11.1036
▁관리에	-11.1038
im	-11.1041
ad	-11.1042
▁실시예는	-11.1043
유지	-11.1043
▁위원장이	-11.1045
트라	-11.1046
▁응급	-11.1046
▁피자	-11.1048
▁단점	-11.105
▁높을	-11.1051
▁돌연변이	-11.1052
▁리듬	-11.1052
▁어쨌든	-11.1052
▁인테리어	-11.1052
▁흡기	-11.1052
▁스위스	-11.1052
▁반려동물	-11.1052
▁Fig	-11.1052
▁마우스	-11.1052
▁비추어	-11.1053
▁포도당	-11.1053
▁로딩	-11.1053
▁가이드라인	-11.1053
특	-11.1053
▁기준금리	-11.1054
▁고강도	-11.1054
▁격려	-11.1054
▁시계열	-11.1055
▁공중합체	-11.1055
ate	-11.1055
▁높아질	-11.1055
▁쾌적	-11.1056
▁야생	-11.1056
▁개념은	-11.1056
▁돌아오	-11.1056
▁성형품	-11.1056
▁무죄	-11.1057
▁획득한	-11.1057
▁스토리	-11.1057
▁원하시는	-11.1058
▁예후	-11.1059
▁진폭	-11.1059
▁되는지	-11.106
▁줄이기	-11.1063
수업	-11.1065
▁하강	-11.1066
▁가해지	-11.1067
▁위치해	-11.1067
▁중국인	-11.1068
▁고압	-11.1068
▁층간	-11.1069
▁대여	-11.1069
▁실드	-11.107
▁분비	-11.107
▁수익률	-11.1071
내는	-11.1072
▁걸렸다	-11.1072
▁팁	-11.1072
▁예방접종	-11.1072
▁선회	-11.1073
▁앞선	-11.1073
▁편의점	-11.1075
▁인플루엔자	-11.1076
▁공중	-11.1077
▁패턴들	-11.1078
▁죽음	-11.108
▁라이브	-11.108
▁57	-11.108
▁부호화	-11.108
▁그렇지만	-11.108
마저	-11.1081
▁화장	-11.1082
▁문화예술	-11.1084
▁슈퍼	-11.1084
▁문제점이	-11.1085
▁독감	-11.1085
▁질적	-11.1087
▁승계	-11.1089
21	-11.1089
▁꼬	-11.109
▁명소	-11.109
▁캠	-11.1091
▁지대	-11.1092
없는	-11.1093
▁나선다	-11.1093
▁감면	-11.1095
▁경찰관	-11.1097
▁정교	-11.1101
▁주름	-11.1103
▁확보하기	-11.1103
▁가능성에	-11.1104
▁있어서도	-11.1105
▁소개했다	-11.1105
▁위성	-11.1113
▁상점	-11.1113
▁유적	-11.1115
▁국제적	-11.1121
▁매력적	-11.1122
▁생일	-11.1124
▁지원이	-11.1127
▁있었기	-11.1129
▁블록도	-11.1129
▁해외에서	-11.1132
▁조금만	-11.1133
▁가자	-11.1138
군에	-11.1138
킬	-11.1139
▁중등	-11.114
SO	-11.1141
▁명세서에	-11.1144
▁품질이	-11.1148
▁지어	-11.1149
▁안동	-11.1152
메틸	-11.1153
74	-11.1153
▁경제성장	-11.1153
퇴	-11.1155
▁영역들	-11.1155
인력	-11.1155
95	-11.1156
▁내측에	-11.1158
▁인정되는	-11.1158
▁컨	-11.1159
기간이	-11.1159
▁둔화	-11.116
▁이사장	-11.116
▁참여자들	-11.1162
▁진행하였다	-11.1166
괴	-11.1167
▁밝은	-11.1167
▁법규	-11.1168
아미노	-11.1169
규칙	-11.117
<	-11.1171
밤	-11.1172
▁경영진	-11.1173
▁추정치	-11.1175
▁주목할	-11.1177
▁AP	-11.118
▁시야	-11.1183
▁기조	-11.1184
▁특화	-11.1188
▁기관지	-11.119
▁계획에	-11.1191
▁규정된	-11.1197
▁반영하여	-11.1203
▁대상에	-11.1206
상담	-11.1206
▁효율이	-11.1207
▁시스템과	-11.1207
▁신체적	-11.121
▁경제학	-11.1214
▁비치	-11.1217
▁연설	-11.1217
▁근처에	-11.1218
▁변경된	-11.1219
▁좋았	-11.1227
▁독점	-11.1228
▁금속층	-11.1229
▁응답자	-11.123
▁꺼	-11.1231
▁강원	-11.1237
(19	-11.1241
▁이성	-11.1242
▁범위의	-11.1242
▁안전하고	-11.1246
에서부터	-11.1247
▁오신	-11.1254
▁그것에	-11.1256
▁느껴	-11.1261
수사	-11.1264
(24	-11.1264
▁일방적	-11.1264
예방	-11.1268
▁처리하기	-11.1269
▁분리하는	-11.1272
▁연구와	-11.1274
되던	-11.1276
▁협회	-11.128
▁AC	-11.128
▁앉아	-11.1281
▁안정성이	-11.1281
▁아이돌	-11.1282
측에	-11.1282
▁않는다면	-11.1284
▁배가	-11.1286
▁절차에	-11.1287
북한	-11.129
▁조성물이	-11.1292
▁있어서는	-11.1293
▁교역	-11.13
▁일치하는	-11.1301
▁보유하	-11.1302
64	-11.1306
밍	-11.1312
▁췌장	-11.1313
▁특성과	-11.1313
인식	-11.1313
동물	-11.1314
▁과태료	-11.1315
▁내다봤다	-11.1315
▁레지스터	-11.1315
▁많고	-11.1315
▁싫어	-11.1315
▁좋고	-11.1315
▁이집트	-11.1315
권자	-11.1315
▁케이싱	-11.1315
▁감쇠	-11.1315
▁혈압	-11.1315
▁착탈	-11.1315
el	-11.1315
▁구조에	-11.1316
▁먹거리	-11.1316
▁규모로	-11.1316
▁형벌	-11.1316
▁콘택트	-11.1316
▁사찰	-11.1317
었지만	-11.1317
(201)	-11.1317
▁택배	-11.1318
▁물고기	-11.1318
▁인과관계	-11.1318
▁놀라운	-11.1318
▁하류	-11.1318
▁자궁	-11.1318
▁커질	-11.1319
▁탈출	-11.1319
▁만료	-11.132
▁실링	-11.132
▁살균	-11.1321
▁로터	-11.1321
▁녹음	-11.1321
▁정황	-11.1322
▁진학	-11.1322
부문	-11.1322
(110	-11.1323
▁포함됩니다	-11.1324
국장	-11.1324
▁벌어지	-11.1324
▁철저히	-11.1326
▁소수	-11.1326
없게	-11.1326
▁주문한	-11.1326
▁돕기	-11.1326
회말	-11.1327
▁90%	-11.1328
(132)	-11.1328
▁교사들	-11.133
▁철회	-11.1331
▁비대면	-11.1332
▁간염	-11.1333
▁대면	-11.1334
▁상판	-11.1338
▁생선	-11.1338
▁겔	-11.1338
▁느낌을	-11.1338
▁장착되어	-11.1341
▁연장된	-11.1341
가능하게	-11.1343
CS	-11.1345
▁폴리에틸렌	-11.1346
▁피치	-11.1346
▁형상으로	-11.1346
▁의미할	-11.1347
▁대향하	-11.1347
항공	-11.1347
▁단장	-11.1352
▁건전	-11.1353
▁최종적으로	-11.1356
소를	-11.1358
▁패턴이	-11.1359
▁원유	-11.1361
▁마련하고	-11.1362
▁거에요	-11.1363
▁63	-11.1364
▁39	-11.1364
▁관해서	-11.1365
▁강요	-11.1365
▁상징	-11.1367
▁Ni	-11.137
▁법인세	-11.1373
▁노출되	-11.1373
십시오	-11.1375
▁예외	-11.1376
군과	-11.1379
▁생각할	-11.1379
▁전시장	-11.1383
▁밤에	-11.1384
▁대행	-11.1385
▁적자	-11.1385
▁불가능하다	-11.139
▁케어	-11.139
▁반영된	-11.1393
▁도입된	-11.1393
▁계단	-11.1393
NS	-11.1396
27	-11.1397
프로	-11.1398
▁마련해	-11.14
▁관객들	-11.1402
▁중력	-11.1403
▁재활	-11.1404
▁괴	-11.1408
▁이용하고	-11.141
▁보니까	-11.1418
▁운영에	-11.1419
▁아민	-11.1421
타운	-11.1421
▁내리	-11.1422
▁형식으로	-11.1422
구요	-11.1427
TS	-11.1427
차량	-11.1428
론적	-11.1429
나마	-11.1431
▁추출된	-11.1431
▁독성	-11.1434
자로서	-11.1434
▁∼	-11.1435
벤	-11.1437
▁잎	-11.1437
▁알려지	-11.1439
듭니	-11.1439
꽃	-11.1439
푸	-11.144
▁75	-11.1441
아웃	-11.1441
67	-11.1442
▁법원은	-11.1445
▁가져오	-11.1446
이미지	-11.1448
▁자문	-11.1448
▁편의성	-11.1449
보세요	-11.145
드릴	-11.145
▁메틸	-11.145
▁발의	-11.1453
▁디바이스들	-11.1463
▁가속	-11.1465
▁흥	-11.1466
▁불교	-11.1469
차전	-11.1472
▁구성원들	-11.1472
94	-11.1474
▁본원에	-11.1476
호가	-11.1477
▁감안	-11.1479
87	-11.148
▁필기	-11.1485
▁대륙	-11.1485
▁62	-11.1486
전문	-11.1487
▁유체를	-11.1488
▁접근성	-11.149
▁이수	-11.1494
49	-11.1494
▁물어보	-11.1505
▁펼쳐	-11.1508
▁드릴게요	-11.151
50)	-11.1511
▁한화	-11.1512
▁전주	-11.1515
▁음식물	-11.1519
▁처한	-11.1521
▁불가피	-11.1522
▁식으로	-11.1523
▁유전	-11.1524
분위	-11.1526
▁NH	-11.1527
웨이	-11.1529
▁건너	-11.153
▁국정	-11.1532
▁저항성	-11.1532
▁걸려	-11.1536
▁아침에	-11.1538
43	-11.1538
쳤	-11.154
▁2-	-11.1542
자리	-11.1542
▁위치로	-11.1546
영상	-11.1546
▁국소	-11.1547
▁나누	-11.1552
과정에서	-11.1553
▁폰	-11.1558
▁문제와	-11.156
해지고	-11.1562
▁받침	-11.1568
RI	-11.1568
IA	-11.1569
▁가족이	-11.157
▁사용량	-11.1574
▁데뷔	-11.1575
▁인삼	-11.1579
▁검토하고	-11.1579
▁귀속	-11.1579
요건	-11.158
▁저지	-11.1581
▁기판에	-11.1584
400	-11.1585
▁그렇기	-11.1585
▁놓치	-11.1585
▁늦게	-11.1585
▁어두운	-11.1585
▁자가격리	-11.1585
▁폭넓	-11.1585
껏	-11.1585
▁포맷	-11.1585
▁멀티미디어	-11.1585
▁규율	-11.1585
▁CCTV	-11.1585
(420)	-11.1585
▁노광	-11.1585
(430)	-11.1586
▁아름다움	-11.1586
▁설문조사	-11.1586
▁배럴	-11.1586
▁반죽	-11.1587
▁합격	-11.1587
▁솔직히	-11.1588
▁제공한	-11.1589
▁지칭	-11.159
▁애초	-11.159
▁있었어요	-11.1593
(106)	-11.1594
▁흉부	-11.1594
▁양말	-11.1595
▁커뮤니케이션	-11.1595
▁선반	-11.1596
▁위기에	-11.1596
▁고향	-11.1598
▁요인들	-11.1599
▁다행	-11.1599
▁빠진	-11.16
▁160	-11.16
▁엘	-11.1601
▁소설	-11.1601
▁다음달	-11.1601
▁경구	-11.1602
▁박테리아	-11.1603
▁아마존	-11.1603
▁말한	-11.1603
▁핵산	-11.1604
▁끝내	-11.1604
▁땀	-11.1607
▁농산물	-11.1607
▁올렸다	-11.1607
▁금전	-11.1608
▁60%	-11.1608
▁규정하는	-11.1608
▁악성	-11.1608
내가	-11.1609
▁블루	-11.1611
▁빠지	-11.1612
개월간	-11.1613
▁압전	-11.1614
▁지리적	-11.1615
이라면서	-11.1616
DP	-11.1617
▁참조하여	-11.1618
▁돌리	-11.1618
단지	-11.1619
▁염증성	-11.162
▁그려	-11.1622
▁류	-11.1623
▁취할	-11.1626
▁주권	-11.1627
▁공고	-11.1628
▁운영을	-11.1629
▁드렸습니다	-11.1631
상이	-11.1631
▁저축	-11.1633
▁주인	-11.1634
▁아니라고	-11.1635
▁파악하기	-11.1639
▁이혼	-11.1645
▁밝기	-11.1647
▁골프장	-11.1647
▁늘어나고	-11.1649
▁수영장	-11.165
▁조사하고	-11.1658
▁살펴볼	-11.1658
ass	-11.1661
▁댐	-11.1667
▁표정	-11.167
▁유사하다	-11.1671
▁갖추	-11.1671
▁찾아가	-11.1673
700	-11.1674
▁포괄적	-11.168
▁정부에	-11.1686
적이며	-11.1688
회가	-11.1688
▁못했	-11.169
▁제공하여	-11.1692
▁프레임에	-11.1695
쓰	-11.1695
▁영장	-11.1698
▁일차	-11.1698
▁방법론	-11.17
▁주면	-11.17
▁뒤로	-11.1701
아야	-11.1703
▁향하	-11.1704
콘	-11.1707
▁분석하기	-11.1708
▁봐야	-11.1709
▁길이방향	-11.1709
▁학교에	-11.1709
길이	-11.1709
▁복잡	-11.1712
▁떨어지	-11.1712
▁시정	-11.1713
▁윤리	-11.1713
자동차	-11.1718
몬	-11.1718
솔	-11.1718
큐	-11.1719
동맥	-11.1719
펀드	-11.1721
▁의상	-11.1722
하시나요	-11.1723
학기	-11.1723
참여	-11.1724
▁요인은	-11.1726
▁독자	-11.1728
보고서	-11.1732
▁판단하고	-11.1735
▁유동성	-11.1736
이죠	-11.1738
▁제안한다	-11.174
군에서	-11.1743
온도	-11.1749
▁자제	-11.1755
액의	-11.1757
▁접근이	-11.1762
▁방지하는	-11.1765
왔	-11.1766
▁경찰에	-11.1769
수로	-11.1772
RT	-11.1773
순위	-11.1775
▁얼	-11.1781
▁Ti	-11.1786
인치	-11.1792
85	-11.1792
▁제시하는	-11.1794
▁스트림을	-11.1795
셔야	-11.1801
▁공정성	-11.1801
유로	-11.1804
▁61	-11.1806
군이	-11.1807
(25	-11.181
▁결정했다	-11.1811
▁묘	-11.1815
위치	-11.1816
지요	-11.1818
▁놓여	-11.1819
▁195	-11.1819
▁사회복지	-11.1821
쟁	-11.1824
▁속한	-11.1827
▁안쪽	-11.1828
▁이곳에서	-11.184
▁길이의	-11.1842
자들에게	-11.1843
▁한미	-11.1847
▁잠깐	-11.1851
롭	-11.1851
렬	-11.1854
DR	-11.1854
4,	-11.1856
▁시군	-11.1858
▁클릭	-11.186
건으로	-11.1861
▁마주	-11.1863
▁가뭄	-11.1863
▁꼼꼼	-11.1863
▁리간드	-11.1863
▁스테인리스	-11.1863
냅니다	-11.1863
▁바인더	-11.1863
▁헌법재판소	-11.1863
▁조사한	-11.1863
▁기쁨	-11.1863
▁포켓	-11.1863
▁계약에	-11.1863
▁균열	-11.1864
(510)	-11.1864
▁파쇄	-11.1864
▁히터	-11.1864
▁연삭	-11.1864
▁권취	-11.1864
▁스킨	-11.1865
▁소켓	-11.1865
▁GPS	-11.1865
▁예능	-11.1865
▁1960	-11.1866
▁소련	-11.1866
▁열람	-11.1868
▁빈번	-11.1868
▁방열	-11.1869
▁밝혀졌다	-11.1869
▁걸리는	-11.187
▁향상시키기	-11.1871
자마자	-11.1873
▁개봉	-11.1874
▁고리형	-11.1874
▁정립	-11.1875
▁점진적	-11.1875
(114)	-11.1876
▁해지	-11.1876
▁국세	-11.1878
▁판매하는	-11.1879
▁시가	-11.188
▁적용한	-11.1883
석이	-11.1885
▁농장	-11.1885
▁그릇	-11.1885
▁브리핑	-11.1886
▁횡	-11.1886
ent	-11.1886
▁시설이	-11.1886
▁전극들	-11.1887
▁풍부	-11.1889
▁기포	-11.1889
▁프로그램에	-11.189
▁폭행	-11.189
대는	-11.1891
▁방치	-11.1891
▁부회장	-11.1891
▁의제	-11.1892
▁전형	-11.1892
▁타당하다	-11.1893
▁공정에서	-11.1893
▁식도	-11.1893
▁시약	-11.1895
▁아이가	-11.1897
▁불과하다	-11.1898
▁동일하다	-11.1899
▁한도	-11.1902
▁레버	-11.1906
▁DB	-11.1907
하느냐	-11.1907
▁집으로	-11.1907
▁그치	-11.1907
▁내릴	-11.1911
BS	-11.1911
▁금융시장	-11.1914
79	-11.1915
▁본격화	-11.1916
▁인정된다	-11.1917
▁인형	-11.1917
현상	-11.1917
금리	-11.1919
▁오버	-11.192
▁800	-11.1922
▁구성으로	-11.1922
▁안보리	-11.1922
▁FA	-11.1922
▁광산	-11.1925
▁약화	-11.1925
▁이어진다	-11.1928
▁고안	-11.1929
▁대리인	-11.1931
▁허용되는	-11.1931
▁말씀을	-11.1932
▁넘치	-11.1933
▁분자량	-11.1934
함수	-11.1937
▁고전	-11.1943
600	-11.1944
▁공조	-11.1947
▁친구들과	-11.1948
▁보내고	-11.1949
▁맹	-11.1949
▁인터뷰에서	-11.1954
TC	-11.1956
▁전달할	-11.1956
▁봐요	-11.1956
자기	-11.1957
▁편하게	-11.1957
▁제공받	-11.1957
▁가교	-11.1957
▁고의	-11.1958
▁공연장	-11.1964
▁유산	-11.1969
▁노동자들	-11.1979
(33	-11.198
▁원을	-11.1981
줘	-11.1986
▁모드에서	-11.1995
▁반복적	-11.1997
▁상수	-11.1999
▁사이트에	-11.2
▁부스	-11.2001
≤	-11.2001
감사	-11.2001
앤	-11.2003
▁주차장	-11.2005
`	-11.2005
▁발레	-11.2006
AAA	-11.2006
▁단계는	-11.2007
대와	-11.2008
▁한데	-11.2009
▁동맥	-11.2009
청소년	-11.2011
▁사업체	-11.2011
▁아웃	-11.2011
▁회의에	-11.2013
형성	-11.2014
전쟁	-11.2015
▁재해	-11.2015
▁접촉자	-11.2019
에틸	-11.2021
오프	-11.2023
앞으로	-11.2024
TA	-11.2024
지표	-11.2026
▁시작해	-11.2029
▁부위에	-11.203
▁생기는	-11.203
조합	-11.2031
현재	-11.2036
▁일할	-11.2037
▁전선	-11.2041
▁투자가	-11.2044
정지	-11.2047
▁쇼	-11.2049
▁감기	-11.2049
주셨으면	-11.205
▁크기로	-11.2052
▁한다면	-11.2053
▁말레이시아	-11.2058
▁투명성	-11.2059
수요	-11.2062
▁제작된	-11.2065
차로	-11.2068
▁일본인	-11.2074
위원회의	-11.2074
▁고문	-11.2074
인데요	-11.2075
▁동기화	-11.2078
라서	-11.208
▁오해	-11.208
되었	-11.2085
▁설정하고	-11.2087
47	-11.2088
대거	-11.2088
▁일반인	-11.2088
중인	-11.2094
▁기저	-11.2104
▁복수개	-11.2105
39	-11.211
률은	-11.2113
시키지	-11.2114
▁경량	-11.2114
▁감소하고	-11.2115
▁플랜	-11.2121
▁작품이	-11.2123
ii	-11.2128
▁중국에	-11.2129
동기	-11.2129
▁강화하는	-11.2129
층과	-11.2132
▁적발	-11.2133
▁결정이	-11.2134
▁활물질	-11.2136
▁국가에	-11.214
▁알아보	-11.2144
튼	-11.2146
구로	-11.2147
랭	-11.2148
바이	-11.2148
▁절삭	-11.2148
▁국토교통부	-11.2149
▁바꿔	-11.2149
▁액세서리	-11.2149
▁업그레이드	-11.2149
▁컬렉션	-11.2149
▁깔끔	-11.2149
▁부적절	-11.2149
▁승용차	-11.2149
▁세계보건기구	-11.2149
▁애니메이션	-11.2149
▁랜덤	-11.2149
▁무언가	-11.2149
▁시카고	-11.2149
▁외곽	-11.2149
▁몽골	-11.2149
▁레코드	-11.2149
▁채팅	-11.2149
▁간략	-11.215
▁금융당국	-11.215
▁아무것	-11.215
연합회	-11.2151
▁착오	-11.2151
▁투약	-11.2151
MP	-11.2151
▁국외	-11.2151
▁남녀	-11.2152
▁누출	-11.2153
주십시오	-11.2153
▁1999	-11.2154
▁얼음	-11.2154
▁생길	-11.2154
▁국제기구	-11.2155
▁패러다임	-11.2155
▁있었는데	-11.2155
▁풍경	-11.2157
▁백업	-11.2158
▁마약	-11.2159
▁개통	-11.216
▁염료	-11.216
▁소집	-11.2163
▁기입	-11.2164
▁온라인으로	-11.2164
▁대응하여	-11.2165
▁있을까	-11.2165
▁파기하고	-11.2166
(124)	-11.2168
▁체적	-11.2168
▁청산	-11.2169
▁막아	-11.2169
▁IoT	-11.2172
800	-11.2173
놀이	-11.2173
▁필요해요	-11.2174
▁바닥에	-11.2174
▁습도	-11.2175
▁플로우	-11.2176
▁작게	-11.2176
▁문화유산	-11.2177
(70)	-11.2177
▁라디칼	-11.218
경찰	-11.2182
▁구름	-11.2182
▁유사하게	-11.2186
시스	-11.2187
▁방안에	-11.2187
▁풀리	-11.2187
▁집안	-11.2188
▁파기	-11.219
▁연도	-11.2193
▁해석된다	-11.2194
▁법칙	-11.2194
▁터미널	-11.2201
▁기능적	-11.2201
▁교원	-11.2205
▁선단부	-11.2206
▁나를	-11.2206
▁유적지	-11.2207
▁문화와	-11.2208
▁구조와	-11.2208
▁등재	-11.2208
65	-11.2209
▁2,000	-11.221
▁외면	-11.221
리어	-11.2212
기계	-11.2213
▁먹이	-11.2216
▁견고	-11.2217
문서	-11.2221
(30	-11.2223
▁RNA	-11.2224
계수	-11.2225
▁되었고	-11.2226
▁만화	-11.2228
▁돌봄	-11.223
▁코팅된	-11.2231
▁오지	-11.2236
▁결합되어	-11.2237
▁되기를	-11.2241
▁아트	-11.2243
▁한국당	-11.2248
▁워드	-11.2248
중에	-11.2248
▁개발과	-11.2248
▁개질	-11.2249
▁전수	-11.2252
▁감소한	-11.2252
37	-11.2253
▁불가	-11.2253
▁열려	-11.2254
▁전망했다	-11.2256
공무원	-11.2257
▁대상체	-11.2261
▁않을까	-11.2262
▁이자	-11.2265
▁노화	-11.2267
▁선호도	-11.2269
텍	-11.227
▁교대	-11.2272
▁졸	-11.2273
▁동선	-11.2274
▁흡수성	-11.2278
▁관람객	-11.2281
건을	-11.2284
쌍	-11.2284
▁간이	-11.2287
맞	-11.2288
▁낮고	-11.2288
▁주문하고	-11.2289
se	-11.2289
▁살해	-11.2291
시민	-11.2291
▁DM	-11.2295
냉	-11.2298
엘	-11.2298
▁정당성	-11.2298
▁치료하기	-11.2298
▁LA	-11.23
▁제안했다	-11.2301
▁발생시키는	-11.2303
장치는	-11.2303
렌즈	-11.2303
▁소실	-11.2306
무려	-11.231
▁대응하기	-11.231
▁제시했다	-11.231
▁판단에	-11.2311
▁결합하여	-11.2314
▁필자	-11.2314
설비	-11.2316
▁밭	-11.2316
▁준비하고	-11.2316
▁보면서	-11.2319
▁처리하여	-11.232
된다면	-11.232
▁법률에	-11.2326
▁사고로	-11.2326
▁환경과	-11.2328
▁인간이	-11.2329
▁본체부	-11.2332
웨	-11.2336
▁불이	-11.2339
▁미래에	-11.2344
▁사용자로부터	-11.2345
86	-11.2349
현장	-11.2351
▁일어나는	-11.2355
▁제외하고는	-11.2359
▁주민의	-11.2362
▁달라고	-11.2364
▁수백	-11.2365
번호	-11.237
▁염기	-11.2372
▁말에	-11.2373
▁수비	-11.2373
▁인정한	-11.2377
▁법제	-11.2381
파크	-11.2381
만달러	-11.2382
AR	-11.2383
33	-11.2386
▁간다	-11.2391
▁갈등이	-11.2393
▁성능이	-11.2394
▁바람이	-11.2394
▁구매하고	-11.2395
년대에	-11.2398
▁제조사	-11.2398
▁환경이	-11.24
▁금액이	-11.24
였고	-11.24
자연	-11.2402
▁EC	-11.2403
효과를	-11.2405
▁계약서	-11.2405
▁화합물은	-11.2408
▁중앙부	-11.2413
▁효능	-11.2415
▁압	-11.2416
▁안건	-11.2417
▁증발	-11.2419
▁조건은	-11.2421
놀	-11.2422
▁가르	-11.2426
▁물질로	-11.2426
▁없음	-11.2429
되는데	-11.243
전력	-11.2431
준비	-11.2431
▁강화된	-11.2431
▁잔여	-11.2433
▁가족들	-11.2433
▁남겨	-11.2434
▁제출한	-11.2435
▁배합	-11.2435
▁종사자	-11.2436
▁어려웠	-11.2439
▁컬럼	-11.2439
픽	-11.2441
▁그룹에	-11.2442
법과	-11.2442
▁노하우	-11.2443
▁메이크업	-11.2443
▁믿고	-11.2443
▁믿음	-11.2443
▁붉은	-11.2443
▁스트리밍	-11.2443
▁않겠다	-11.2443
▁않음	-11.2443
▁영수증	-11.2443
▁읽고	-11.2443
▁임피던스	-11.2443
▁컨텍스트	-11.2443
▁프레젠테이션	-11.2443
겠죠	-11.2443
▁일어날	-11.2443
▁백화점	-11.2443
▁국민연금	-11.2443
▁업로드	-11.2443
▁확충	-11.2443
▁벤딩	-11.2443
▁일본에서	-11.2443
▁칭찬	-11.2443
▁없으므로	-11.2443
▁관념	-11.2443
▁탈퇴	-11.2443
▁불균형	-11.2443
(610)	-11.2443
▁맞춘	-11.2443
▁입출력	-11.2443
▁USB	-11.2444
▁솔더	-11.2444
▁여름철	-11.2444
▁얻어지는	-11.2445
▁비휘발성	-11.2445
시트	-11.2445
▁최악	-11.2445
▁다릅니	-11.2445
▁필러	-11.2445
▁결절	-11.2446
▁일회용	-11.2447
▁그리드	-11.2447
▁외벽	-11.2447
▁감광성	-11.2447
▁저소득층	-11.2447
DI	-11.2447
▁주어	-11.2447
▁싶은데	-11.2447
▁일요일	-11.2448
▁다운	-11.2449
▁편안함	-11.245
▁해산물	-11.245
▁분노	-11.2452
▁열풍	-11.2452
▁모노	-11.2455
원에서	-11.2456
▁털	-11.2456
▁대결	-11.2456
▁패치	-11.2457
▁허위	-11.2457
점은	-11.2458
▁케이크	-11.2459
▁펴	-11.2462
▁감동	-11.2463
▁보일러	-11.2465
▁뻗어	-11.2465
▁장소에	-11.2465
▁입경	-11.2466
▁도울	-11.2467
▁국면	-11.2468
▁선두	-11.2468
식이	-11.2469
▁불편함	-11.2469
▁점유율	-11.247
▁53	-11.2472
▁용량성	-11.2473
▁조문	-11.2473
th	-11.2474
▁부유	-11.2475
▁발판	-11.2478
공장	-11.2478
▁편익	-11.2478
▁교육적	-11.2479
▁유입구	-11.2479
▁실시한다	-11.248
▁중요하게	-11.248
▁치료하는	-11.2481
▁불안감	-11.2481
▁일반화	-11.2481
(51)	-11.2481
▁관리부	-11.2483
▁않았기	-11.2486
▁분석한다	-11.2487
▁CEO	-11.2489
▁계열사	-11.2489
▁백제	-11.2492
▁향하여	-11.2493
▁논문에서	-11.2495
▁서울에서	-11.2496
▁비롯하여	-11.2496
▁하에	-11.2497
▁청원	-11.2499
▁조정하는	-11.2499
▁제휴	-11.25
▁만났	-11.2501
흐	-11.2503
▁기울여	-11.2504
늘	-11.2505
▁달콤	-11.2506
▁포스트	-11.2507
나라	-11.2509
CO	-11.251
▁승부	-11.251
▁일반식	-11.2512
▁엔드	-11.2513
▁총재	-11.2516
▁연구원은	-11.2517
▁차관	-11.2517
▁외교부	-11.2519
▁정치권	-11.2521
▁통형	-11.2522
▁든다	-11.2522
▁ppm	-11.2523
▁정상회의	-11.2523
▁평가하기	-11.2526
력에	-11.2528
▁증가시키는	-11.2528
활	-11.2531
▁작고	-11.2533
▁전략이	-11.2533
▁효과와	-11.2538
▁소득이	-11.2547
호의	-11.2556
▁확실한	-11.2557
▁판매하고	-11.2558
▁포화	-11.2566
IP	-11.2566
▁있었을	-11.2567
▁하려고	-11.2568
▁발전소	-11.2568
▁기호	-11.2569
▁수용하기	-11.2571
▁전압이	-11.2574
▁큐	-11.2576
▁대개	-11.2577
▁과다	-11.2579
소재	-11.2581
▁대상은	-11.2582
ID	-11.2582
▁전극층	-11.2584
▁물어	-11.2586
▁부가가치	-11.2587
▁보게	-11.2588
▁설명한	-11.2592
▁서버는	-11.2593
화물	-11.2597
물에	-11.2598
성장	-11.2598
▁본부장	-11.2598
▁AR	-11.2598
▁정서적	-11.2599
톱	-11.26
바이러스	-11.26
▁대비해	-11.2601
샤	-11.2602
▁제시할	-11.2604
확인	-11.2605
섬유	-11.2606
▁보자	-11.2612
▁이르	-11.2614
두에	-11.2615
▁위험도	-11.2616
▁신화	-11.2617
전기	-11.2619
▁수락	-11.2619
▁요구에	-11.2619
▁따른다	-11.2625
▁다량	-11.2626
▁출자	-11.2628
▁지면	-11.2628
▁분석해	-11.2629
▁자기장	-11.2631
▁설치한다	-11.2633
▁일어난	-11.2636
▁대조	-11.2639
직원	-11.264
▁내성	-11.2643
▁상부에	-11.2644
▁분말을	-11.2644
▁도핑	-11.2647
▁유효성	-11.2648
전류	-11.2649
▁매도	-11.2656
장치에	-11.2657
해주고	-11.2657
수는	-11.2658
박스	-11.2658
▁고화	-11.2659
▁인체	-11.2664
조절	-11.2665
▁내는	-11.2673
▁설치해	-11.2673
▁장소에서	-11.2676
▁변환기	-11.2679
▁응급실	-11.2679
▁흉	-11.268
▁업체들	-11.2683
구에	-11.2687
세트	-11.2691
시다	-11.2691
▁장려	-11.2693
공항	-11.2693
▁49	-11.2697
▁자성	-11.2703
▁조건에서	-11.2703
영화	-11.2703
▁상속	-11.2707
~6	-11.2708
▁궁	-11.2717
신경	-11.2719
▁제품과	-11.2719
▁배지	-11.272
마루	-11.2725
▁업계에서	-11.2727
▁줄기	-11.2727
어진	-11.2728
▁오목	-11.2728
ic	-11.2729
▁수중	-11.2731
▁했어	-11.2731
▁가려	-11.2732
EC	-11.2732
▁젖	-11.274
첨	-11.2742
ch	-11.2742
▁적다	-11.2742
▁아프	-11.2743
숭	-11.2746
▁끌었	-11.2746
▁뇌졸중	-11.2746
▁않나	-11.2746
▁엔지니어	-11.2746
▁플랩	-11.2746
▁모르겠어	-11.2746
▁라이너	-11.2746
▁눌러	-11.2746
▁고성능	-11.2746
▁슬러지	-11.2746
▁풀이된다	-11.2746
▁나노입자	-11.2746
▁유방암	-11.2746
▁역학조사	-11.2746
▁오븐	-11.2746
▁징후	-11.2746
(330)	-11.2746
▁전투	-11.2747
▁발화	-11.2747
▁의미에서	-11.2747
▁확진환자	-11.2747
▁성찰	-11.2747
▁인접하	-11.2747
▁양념	-11.2747
▁골격	-11.2748
▁헤더	-11.2748
▁겨울철	-11.2748
▁순서대로	-11.2748
(151)	-11.2749
▁함양	-11.2751
▁보육	-11.2751
▁2022	-11.2751
▁불법행위	-11.2752
▁유료	-11.2754
▁과감	-11.2754
▁꺼내	-11.2754
▁소독	-11.2756
▁공유할	-11.2756
▁핫	-11.2757
▁공급업체	-11.2757
거든	-11.2759
▁가요성	-11.2759
▁인터	-11.2759
▁궁극적으로	-11.2763
▁감염을	-11.2763
▁가량	-11.2763
▁학교생활	-11.2764
▁의향	-11.2764
▁사출	-11.2767
▁정책과	-11.2769
▁일시적으로	-11.2771
▁글자	-11.2773
▁그래요	-11.2773
▁해결책	-11.2773
▁얘	-11.2773
▁끌어	-11.2774
II	-11.2776
내에서	-11.2776
▁탄소수	-11.2779
▁굽	-11.2779
▁미치	-11.2779
▁등기	-11.2779
▁점막	-11.278
▁날아	-11.2782
▁저자	-11.2782
▁관행	-11.2784
▁호르몬	-11.2784
▁진행됐다	-11.2784
▁매주	-11.2785
▁났	-11.2787
▁계산된	-11.2789
▁커다	-11.2789
▁예전에	-11.2789
▁봉지	-11.279
▁방정식	-11.2797
▁현실적으로	-11.2798
▁느껴지	-11.2805
75	-11.2806
▁그곳	-11.281
▁수단은	-11.2811
▁근본적으로	-11.2811
▁음원	-11.2815
▁된다면	-11.2818
주의적	-11.2818
▁부식	-11.2818
▁어렵고	-11.2819
▁수행되었다	-11.2825
화에	-11.2825
▁수위	-11.2825
▁용기에	-11.2826
▁동작에	-11.2826
▁작성한	-11.2828
▁식용	-11.2829
▁투자에	-11.283
▁조합원	-11.2831
▁응집	-11.2832
하셔서	-11.2837
▁살펴보기	-11.284
▁공격수	-11.284
▁지속가능	-11.2841
▁정적	-11.2844
페이	-11.2844
▁생리	-11.2845
다리	-11.2845
세의	-11.2845
▁유연성	-11.2845
자형	-11.2847
대응	-11.2847
MC	-11.2848
요법	-11.2853
▁용인	-11.2854
▁서버에	-11.2854
▁약국	-11.2857
▁중에서도	-11.2857
스와	-11.2861
사업자	-11.2864
BL	-11.2865
▁세탁기	-11.2866
▁형성한	-11.2868
료를	-11.2871
▁지원에	-11.2874
웠다	-11.2875
▁상황과	-11.2875
▁홀로	-11.2877
▁초반	-11.2882
만여	-11.2882
▁인식하는	-11.2885
▁유리한	-11.2886
▁경우에만	-11.2886
▁학원	-11.2886
▁가드	-11.2887
칼	-11.2888
▁쉽	-11.2889
개선	-11.2889
▁낮추는	-11.2893
31	-11.2893
편의	-11.2897
AT	-11.2898
억원이	-11.29
▁매달	-11.2903
▁과장	-11.2906
▁날이	-11.2909
둘	-11.2911
태평양	-11.2911
▁어렵다고	-11.2912
▁군사적	-11.2912
잎	-11.2912
▁선택하여	-11.2913
금속	-11.2913
낙	-11.2915
앱	-11.2915
잘	-11.2916
주식	-11.2916
모델	-11.2917
농업	-11.2918
유럽	-11.2919
▁비아	-11.2922
동에	-11.2924
▁열차	-11.2925
톡	-11.2925
▁방문객	-11.2927
▁제안된	-11.2928
▁셋	-11.2928
▁빚	-11.2928
▁시인	-11.2929
▁작성하여	-11.2934
웠	-11.2937
▁만나는	-11.2942
▁청주	-11.2942
▁물질은	-11.2943
▁디자인으로	-11.2944
▁자료에	-11.2947
▁필요하지	-11.2948
▁손으로	-11.2952
만원을	-11.2953
▁사양	-11.2954
서버	-11.2955
▁이형	-11.2956
▁역학	-11.2958
▁68	-11.297
▁강점	-11.2974
▁표준화	-11.2974
▁기술에	-11.2974
방법을	-11.2975
▁되어야	-11.298
▁관계자들	-11.2981
했음	-11.2986
▁계약이	-11.2987
op	-11.2988
▁고정부	-11.2992
▁하측	-11.2993
▁변제	-11.2996
▁지원하기	-11.2997
▁층에	-11.2997
측정	-11.2998
▁IP	-11.3002
▁하시는	-11.3003
▁일정이	-11.3006
▁참가자들	-11.3007
▁피험자	-11.3011
SM	-11.3013
▁소식이	-11.3017
PO	-11.3017
▁66	-11.3019
▁추진한다	-11.302
화하는	-11.3022
▁동화	-11.3023
▁바탕	-11.3025
▁기분이	-11.3027
▁응축	-11.3028
체는	-11.3028
▁면접	-11.303
▁가능하다고	-11.3035
▁조작부	-11.3036
저축은행	-11.3036
▁다니	-11.3038
▁차량에	-11.3039
관의	-11.3039
▁칸	-11.304
▁한국이	-11.3041
▁기증	-11.3041
공제	-11.3042
PP	-11.3043
▁효과에	-11.3044
▁국방	-11.3047
▁보험금	-11.3048
▁현장에	-11.305
▁변이	-11.3051
▁많을	-11.3057
▁출근	-11.3058
▁폴란드	-11.3058
▁금메달	-11.3058
▁꼽힌다	-11.3058
▁달걀	-11.3058
▁조세회피	-11.3058
▁초콜릿	-11.3058
▁이르기까지	-11.3058
▁종업원	-11.3058
▁릴레이	-11.3058
▁규격	-11.3058
▁블루투스	-11.3058
▁바쁜	-11.3058
▁목숨	-11.3058
▁바이패스	-11.3058
▁들어갔다	-11.3058
▁액티브	-11.3058
▁드레인	-11.3059
▁당뇨	-11.3059
▁증언	-11.3059
▁침착	-11.3059
▁호응	-11.306
▁나란히	-11.306
▁비싼	-11.306
▁목격	-11.3062
서울	-11.3062
▁세련	-11.3064
▁낯	-11.3064
▁특유	-11.3064
▁치명적	-11.3064
▁부패	-11.3065
▁이루어져야	-11.3066
▁외래	-11.3066
▁1970	-11.3066
▁다행히	-11.3067
▁충주	-11.3067
▁임직원	-11.3067
▁반품	-11.3068
▁유망	-11.3068
▁잡을	-11.3071
▁행동에	-11.3072
일로	-11.3072
▁것이기	-11.3073
▁거품	-11.3073
▁포스	-11.3074
▁작동하는	-11.3074
▁의결권	-11.3074
▁엿	-11.3074
▁중립	-11.3074
▁명단	-11.3075
▁현지에서	-11.3076
▁의거	-11.3076
▁오면	-11.3077
▁산책	-11.3077
▁증가시킬	-11.308
▁종합적으로	-11.308
▁감소시킨다	-11.3081
▁깨끗하게	-11.3082
조선	-11.3082
▁이례적	-11.3083
▁시급	-11.3083
▁증가함	-11.3084
기만	-11.3084
진이	-11.3085
▁하나씩	-11.3085
(28)	-11.3085
(36)	-11.3086
▁조율	-11.3086
▁곡면	-11.3088
▁인종	-11.3088
▁우편	-11.3088
▁소위	-11.3089
▁현안	-11.3089
▁자본주의	-11.3089
▁상정	-11.309
▁무장	-11.3092
리스트	-11.3092
▁것이므로	-11.3094
▁계면	-11.3094
▁자치구	-11.3095
▁예술가	-11.3096
▁같아서	-11.3097
un	-11.3097
▁맞춤	-11.3098
▁일본은	-11.3101
▁과학기술	-11.3102
▁집단의	-11.3102
▁경우와	-11.3106
▁친화적	-11.3106
▁전체에	-11.3106
CM	-11.3107
▁OLED	-11.3112
▁압력이	-11.3112
▁주식회사	-11.3112
▁대피	-11.3114
▁분리되어	-11.3115
▁홍수	-11.3116
▁쓰지	-11.3118
▁중순	-11.3122
▁봉투	-11.3122
▁배출구	-11.3123
▁커지	-11.3126
▁송신한다	-11.3128
에게서	-11.3129
▁담아	-11.3129
▁취약한	-11.313
▁리브	-11.313
▁칼로리	-11.313
▁농지	-11.3131
▁프로필	-11.3131
▁저온	-11.3132
▁북한에	-11.3132
▁더해	-11.3132
▁바르	-11.3135
생산	-11.3139
▁역전	-11.3139
▁운영할	-11.3145
▁수익성	-11.3145
▁시간적	-11.3146
▁희	-11.3147
▁후회	-11.3148
▁감소했다	-11.3149
▁내재	-11.3149
분에	-11.3151
▁기재된	-11.3151
▁중반	-11.3153
▁맞추	-11.3154
오스	-11.3156
▁밀집	-11.3159
근로	-11.3159
▁즉각	-11.3159
▁종단	-11.3159
97	-11.3163
▁규정한	-11.3167
▁개성	-11.317
▁무엇보다도	-11.317
▁라이트	-11.317
하였지만	-11.3173
▁늘어	-11.3175
▁환경적	-11.3177
▁기관이	-11.3178
▁것임	-11.3182
▁700	-11.3184
▁코리아	-11.3188
▁조제	-11.319
▁힘들다	-11.319
▁배경으로	-11.3191
▁이해하기	-11.3192
▁25%	-11.3192
▁모두에서	-11.3199
들어	-11.32
▁금요일	-11.3203
▁Co	-11.3204
▁대안으로	-11.3204
▁경고했다	-11.3205
▁해군	-11.3209
▁관계로	-11.3209
▁과제는	-11.322
관계를	-11.322
변경	-11.3224
▁수광	-11.3225
렉	-11.3226
89	-11.3227
뉴	-11.3228
▁판단했다	-11.3229
졸	-11.3231
ul	-11.3231
넷	-11.3232
납니다	-11.3234
뜨	-11.3234
롤	-11.3236
유닛	-11.3237
및	-11.3239
▁만족하는	-11.324
공동체	-11.3241
검출	-11.3241
▁재화	-11.3241
▁사랑하는	-11.3241
▁든	-11.3242
▁제작한	-11.3243
▁벨	-11.3243
▁입장이	-11.3245
선택	-11.3246
▁기업인	-11.3248
▁km	-11.325
▁아닌가	-11.3251
▁소요되	-11.3251
손실	-11.3251
협정	-11.3251
목표	-11.3251
건강	-11.3253
▁기지	-11.326
원칙	-11.3262
▁부산시	-11.3263
창업	-11.3265
▁상인	-11.3267
▁가족과	-11.3267
▁필수적인	-11.3268
▁매장에서	-11.3272
▁참고하시	-11.3274
▁산업이	-11.3277
ML	-11.3291
▁섬유를	-11.3301
▁수용부	-11.3304
▁부분에서	-11.3305
·4	-11.3306
▁지원금	-11.3308
▁소득세	-11.331
▁상한	-11.331
었을	-11.3312
▁산업화	-11.3312
이었어요	-11.3313
▁되면서	-11.3313
결제	-11.3314
▁이루어지	-11.3317
▁효력이	-11.3317
▁생성기	-11.3318
음에도	-11.332
용량	-11.332
▁평가하고	-11.332
▁흑	-11.3331
▁보험사	-11.3334
Si	-11.3335
▁방문하는	-11.3336
▁=	-11.3338
▁케	-11.3342
▁64	-11.3345
▁데다	-11.3345
져야	-11.3347
▁기대할	-11.3357
▁모서리	-11.3363
▁뒷	-11.3363
▁저장하고	-11.3366
점에	-11.3368
▁높지	-11.3369
▁짓	-11.337
륜	-11.3371
▁평판	-11.3371
▁앵커	-11.3372
▁달한다	-11.3378
▁환영	-11.3379
▁메모	-11.338
덴	-11.3381
▁이슬람	-11.3381
j	-11.3381
▁깜짝	-11.3381
▁드디어	-11.3381
▁디저트	-11.3381
▁봤다	-11.3381
▁에이전트	-11.3381
▁인센티브	-11.3381
▁일으킬	-11.3381
▁챙겨	-11.3381
▁카탈로그	-11.3381
▁컨볼루션	-11.3381
▁튼튼	-11.3381
▁폴리프로필렌	-11.3381
▁최우선	-11.3381
▁코호트	-11.3381
▁토요일	-11.3381
▁신천지	-11.3381
▁볼록	-11.3381
▁규소	-11.3381
▁세분화	-11.3381
▁핸드폰	-11.3381
▁터치스크린	-11.3381
▁기다리겠습니다	-11.3382
▁크레	-11.3382
▁숨겨	-11.3382
▁과잉	-11.3382
▁클록	-11.3382
▁오염물질	-11.3382
▁트리거	-11.3382
▁테이퍼	-11.3382
▁굴곡	-11.3383
(44)	-11.3383
▁자리잡	-11.3383
▁욕실	-11.3383
시킴	-11.3384
▁개척	-11.3384
하십니까	-11.3384
▁체포	-11.3384
▁군인	-11.3385
▁대표이사	-11.3385
▁소나무	-11.3386
▁아르헨티나	-11.3388
▁이미징	-11.3388
▁대학교	-11.3389
▁항공편	-11.3389
▁조처	-11.339
▁청취	-11.339
▁별표	-11.339
▁장치로서	-11.3391
▁전도체	-11.3392
▁우크라이나	-11.3393
▁카운터	-11.3393
▁자격증	-11.3393
▁결혼식	-11.3393
▁원하지	-11.3394
▁실망	-11.3394
법으로	-11.3395
▁뒷면	-11.3395
▁합동	-11.3395
▁지역경제	-11.3396
▁냈다	-11.3397
▁2∼3	-11.3398
▁국어	-11.34
▁향상시킨다	-11.3401
▁통치	-11.3402
▁한국은행	-11.3404
▁지그	-11.3404
▁알아야	-11.3405
▁생식	-11.3405
▁중개	-11.3406
▁번에	-11.3406
▁줄었다	-11.3406
▁집권	-11.3407
▁원칙에	-11.3408
▁발진	-11.3408
▁충전기	-11.3409
▁착색제	-11.3411
▁후술	-11.3412
▁노동조합	-11.3413
수의	-11.3413
▁시청자	-11.3416
▁스윙	-11.3417
▁찾았다	-11.3417
▁UI	-11.3417
▁호스	-11.3417
▁ODA	-11.3417
▁이른다	-11.3418
▁나누고	-11.342
▁담체	-11.342
▁경제활동	-11.342
▁곡물	-11.3421
▁가졌다	-11.3423
▁나선형	-11.3424
▁프린트	-11.3426
▁미쳤다	-11.3427
▁단계에	-11.3428
▁온도로	-11.3429
▁활력	-11.3431
▁잠재력	-11.3431
▁소비자에게	-11.3435
▁사건에	-11.3435
▁확대되고	-11.3436
▁절제술	-11.3437
(35)	-11.3437
양식	-11.3439
▁원칙으로	-11.3439
▁재량	-11.344
▁외부에서	-11.3444
▁뚜렷한	-11.3444
▁부각	-11.3445
▁0.3	-11.3446
▁동반한	-11.3449
▁모습으로	-11.3457
▁국가로	-11.3458
▁실태	-11.3458
▁고령자	-11.3461
▁나트륨	-11.3464
개인	-11.3465
▁구매자	-11.3467
▁샷	-11.3469
▁확대하고	-11.3471
▁살인	-11.3472
▁맞은	-11.3476
▁책정	-11.3476
▁책상	-11.3478
▁값으로	-11.3482
▁진행되었다	-11.3483
▁5,000	-11.3484
ne	-11.3485
▁케이	-11.3487
▁여야	-11.3488
▁적용하고	-11.349
▁낮을	-11.3491
▁면허	-11.3491
▁제공자	-11.3492
그러	-11.3495
▁미국에	-11.3496
▁둔다	-11.35
분간	-11.3506
▁아닐	-11.3507
▁구하는	-11.3507
▁수단에	-11.3508
▁피고의	-11.3508
겼다	-11.3511
▁입상	-11.3512
▁성공한	-11.3512
(51	-11.3514
▁자녀들	-11.3514
액에	-11.3518
▁신인	-11.3521
PM	-11.3522
000	-11.3523
▁진행한	-11.3523
OR	-11.3526
짜리	-11.3527
▁시에는	-11.3529
줬	-11.3534
▁알기	-11.3536
▁노후	-11.3538
▁말기	-11.3542
▁유학	-11.3543
▁생각보다	-11.3544
▁중학교	-11.3545
▁차례로	-11.3546
▁양단	-11.3546
▁상태와	-11.3549
55	-11.355
앙	-11.3551
▁거라	-11.3552
▁먼	-11.3554
▁존재를	-11.3557
▁느	-11.3562
DS	-11.3563
▁요소에	-11.3563
▁배우고	-11.3563
▁민사	-11.3564
▁미군	-11.3564
▁방향이	-11.3565
패널	-11.3566
몽	-11.3567
▁거지	-11.3567
패턴	-11.3572
럽	-11.3573
▁사야	-11.3573
▁룰	-11.3576
▁법원에	-11.358
▁바람직	-11.3584
교류	-11.3585
▁정보화	-11.3585
▁찍은	-11.3586
▁기대가	-11.3587
재판	-11.3587
경찰서	-11.3589
▁설명할	-11.3589
ot	-11.3592
TT	-11.3593
상기	-11.3596
코스	-11.3596
▁단조	-11.3596
▁공정은	-11.3597
단계로	-11.3597
▁이미지와	-11.36
▁수록	-11.36
함유	-11.3603
시겠어요	-11.3603
OS	-11.3607
▁그릴	-11.3609
▁마련한다	-11.3615
▁해주	-11.3616
문이	-11.3618
▁움직임이	-11.3625
▁생겼	-11.3628
66	-11.3629
-20	-11.3629
▁표지	-11.363
▁인과	-11.3631
ck	-11.3633
▁줄어든	-11.3635
▁국악	-11.364
▁년간	-11.3647
▁도시의	-11.3648
▁먹으	-11.365
비트	-11.365
▁연락해	-11.365
▁비자	-11.3651
▁사인	-11.3653
▁남았	-11.3654
▁하드	-11.3654
▁KB	-11.3659
종이	-11.366
공단	-11.3662
▁즐기	-11.3663
통제	-11.3665
▁모시	-11.3666
▁잇	-11.3667
▁비교하면	-11.367
▁실업	-11.367
▁1.0	-11.3671
88	-11.3672
시티	-11.3673
듀	-11.3673
▁위험성	-11.3674
▁드리	-11.3675
▁수석	-11.3676
▁실험실	-11.3678
▁도입한	-11.3678
▁열기	-11.3678
▁없다면	-11.3679
▁디자인이	-11.3679
▁수면	-11.3681
▁h	-11.3681
집행	-11.3682
▁비용으로	-11.3682
▁북한과	-11.3683
ve	-11.3684
▁이동시키	-11.3687
▁배송이	-11.3689
▁예측하는	-11.3689
▁제기한	-11.3689
▁작업자	-11.369
▁저항을	-11.369
▁배리어	-11.3695
▁약학	-11.3695
▁대두	-11.3696
▁한해	-11.3698
▁병원으로	-11.37
화면	-11.3702
▁상표	-11.3702
▁괜찮은	-11.3704
▁학생과	-11.3704
’(	-11.3705
▁전염	-11.3706
▁파생	-11.3707
깃	-11.3707
▁댓글	-11.3709
▁추진하고	-11.3709
▁같았	-11.3714
▁낮았다	-11.3714
▁믿습니다	-11.3714
▁살펴보았다	-11.3714
▁스크롤	-11.3714
▁좋게	-11.3714
▁템플릿	-11.3714
▁퍼포먼스	-11.3714
▁폴리우레탄	-11.3714
▁싱글	-11.3714
▁친수성	-11.3714
▁줄어드는	-11.3714
▁변호인	-11.3714
▁낭비	-11.3714
▁어쩌	-11.3714
(440)	-11.3714
▁가수분해	-11.3714
▁사우디	-11.3714
▁Table	-11.3714
▁초등학생	-11.3715
▁타이머	-11.3715
MI	-11.3715
▁벌어진	-11.3715
나게	-11.3715
▁이해관계	-11.3715
▁흥미로운	-11.3715
▁부담으로	-11.3716
ity	-11.3716
▁신념	-11.3716
▁살짝	-11.3716
▁몰려	-11.3716
퍼센트	-11.3716
머니	-11.3717
▁괜찮습니다	-11.3717
▁누락	-11.3717
▁1995	-11.3717
▁조짐	-11.3717
▁북극	-11.3718
▁기상청	-11.3718
▁문자열	-11.3718
▁병행	-11.3719
천이	-11.3719
▁2021	-11.372
▁알람	-11.372
▁소홀	-11.372
▁병합	-11.372
▁준공	-11.372
▁욕조	-11.372
▁있어도	-11.372
▁공극	-11.3721
▁창설	-11.3721
▁부재와	-11.3721
▁금융위	-11.3721
▁파열	-11.3721
▁커졌다	-11.3722
▁승진	-11.3723
▁레드	-11.3723
▁환산	-11.3724
▁맞지	-11.3724
▁손목	-11.3726
▁동등	-11.3726
▁고정자	-11.3727
▁발간	-11.3728
▁집합체	-11.373
▁동생	-11.373
▁경제에	-11.373
낸다	-11.3731
▁분산된	-11.3732
▁맞아요	-11.3734
▁실종	-11.3734
▁기울이	-11.3735
52	-11.3736
▁교수님	-11.3739
▁금융위기	-11.3739
▁부합하는	-11.3741
▁사람들과	-11.3744
▁집계됐다	-11.3744
▁지하수	-11.3746
▁선의	-11.3746
▁임차인	-11.3747
▁투쟁	-11.3747
▁자체에	-11.3747
▁부사장	-11.3748
▁산출하는	-11.3748
클로로	-11.375
▁빗	-11.375
▁관내	-11.3751
▁정보통신	-11.3751
▁일체형	-11.3754
수용	-11.3754
▁혜택이	-11.3755
심이	-11.3755
▁쉘	-11.3756
▁미사일	-11.3756
▁구경	-11.3757
▁오랜만	-11.3758
님께서	-11.3759
▁듀얼	-11.3761
▁주축	-11.3762
▁도약	-11.3763
세로	-11.3764
▁외식	-11.3766
▁구체화	-11.3766
▁느끼고	-11.3767
▁wt	-11.3767
▁쉽다	-11.3769
▁일간	-11.3769
▁취재	-11.3771
▁읍	-11.3772
가지고	-11.3773
▁이후로	-11.3773
▁의문이	-11.3775
▁이른	-11.3776
▁굿	-11.3776
▁전자파	-11.3777
▁벽면	-11.3777
▁않아서	-11.3781
▁혼합하여	-11.3782
▁성사	-11.3784
09	-11.3785
▁제어부는	-11.3789
▁이어져	-11.3793
▁배출권	-11.3794
▁양산	-11.3795
▁정밀도	-11.3797
▁공인	-11.3798
▁작물	-11.3798
▁바닥면	-11.38
▁산업에	-11.38
▁하단에	-11.3801
▁호수	-11.3801
▁안내해	-11.3801
▁압도적	-11.3805
▁제기된다	-11.3805
▁Cr	-11.3806
▁제동	-11.3806
▁들어있	-11.3807
▁방제	-11.3808
▁하단부	-11.381
▁캠프	-11.3814
▁주문할	-11.3816
▁가져다	-11.3817
▁상승세	-11.3818
컨	-11.3821
▁광물	-11.3822
▁열전	-11.3823
▁정당화	-11.3823
사무소	-11.3826
▁의혹이	-11.3827
▁스레드	-11.3829
▁외장	-11.383
▁광장	-11.383
사에	-11.383
▁가루	-11.3831
▁오고	-11.3831
▁하우스	-11.3832
▁제제	-11.3832
▁청소년들	-11.3833
~3	-11.3833
▁언론에	-11.3834
주로	-11.3835
▁고민이	-11.3836
비로	-11.3839
▁방지한다	-11.3839
▁드물	-11.3848
▁이뤄지는	-11.3849
▁모양이	-11.385
(130	-11.385
되었기	-11.3852
▁조형	-11.3854
▁그날	-11.3856
▁결과물	-11.3857
▁긍정	-11.3858
▁넘겨	-11.386
야만	-11.3861
만으로도	-11.3861
▁유기물	-11.3862
▁급식	-11.3864
▁흐	-11.3866
68	-11.3867
▁자율성	-11.3867
번에	-11.3867
▁납	-11.3871
▁있고요	-11.3871
▁무사	-11.3872
900	-11.3872
공학	-11.3873
▁효	-11.3873
하시고	-11.3873
▁보장하는	-11.3875
비아	-11.3877
▁코팅층	-11.3877
▁주말에	-11.388
▁명성	-11.388
▁자체로	-11.3881
▁묻	-11.3884
▁이하에서	-11.3884
▁상파울루	-11.3885
▁표시장치	-11.3887
▁개인적으로	-11.389
▁부분으로	-11.3892
▁한강	-11.3894
망이	-11.3894
OC	-11.3895
▁건의	-11.3895
▁결합된다	-11.3901
▁강조한다	-11.3906
▁가속화	-11.3906
뇌	-11.3906
▁산물	-11.3908
▁강구	-11.391
▁귀사에	-11.3913
▁노드에	-11.3913
▁살려	-11.3913
기본법	-11.3915
WHO	-11.3915
▁작용한다	-11.3916
▁회사입니다	-11.3918
40)	-11.3921
▁해석이	-11.3922
대병원	-11.3923
▁진행했다	-11.3923
감염	-11.3924
▁좋아해	-11.3925
▁신라	-11.3927
역량	-11.3934
원인	-11.3938
▁공단	-11.3938
보전	-11.394
▁내야	-11.3941
▁막는	-11.3942
▁조사됐다	-11.3942
▁거주자	-11.3947
▁가져가	-11.3947
우스	-11.3947
▁정해	-11.3953
▁선택하고	-11.396
촉	-11.396
08	-11.396
▁과자	-11.3961
▁진주	-11.3965
대금	-11.3965
기업이	-11.3968
to	-11.397
▁부담하는	-11.3973
스코	-11.3974
타임	-11.3975
부품	-11.3976
▁가정에	-11.3979
▁여러분이	-11.3982
▁참여했다	-11.3988
티오	-11.3989
▁호환	-11.3989
▁확률이	-11.3989
▁나타났	-11.3993
▁단점이	-11.3994
▁시동	-11.3997
▁전환하는	-11.3998
▁삼아	-11.3999
▁경기장	-11.3999
▁신호는	-11.4
칩	-11.4004
▁테니	-11.4004
▁총액	-11.4004
▁원고들	-11.4005
▁요청이	-11.4006
▁자료로	-11.4008
▁무엇이	-11.4012
▁협의회	-11.4016
▁진다	-11.4017
위한	-11.4018
전압	-11.4018
▁얻었	-11.4019
셨어요	-11.4019
▁찾았	-11.402
▁미친다는	-11.4023
▁관측이	-11.4024
건물	-11.4024
화로	-11.4024
▁예배	-11.4025
▁펼치	-11.4026
▁있으신	-11.4031
▁튀	-11.4033
▁작아	-11.4035
ES	-11.4037
▁중심지	-11.4038
▁독자적	-11.4039
▁손해배상	-11.4043
▁개선하는	-11.4043
인구	-11.4044
▁서비스업	-11.4044
▁실외	-11.4048
▁분무	-11.4049
강화	-11.4049
FT	-11.405
▁유한	-11.405
▁강릉	-11.4053
▁많으	-11.4053
델	-11.4054
멘	-11.4054
▁유전체	-11.4055
봉사	-11.4055
시키며	-11.4056
꾼	-11.4056
▁갑상선	-11.4058
*	-11.4059
⋅	-11.4059
▁개발도상국	-11.4059
▁국무위원장	-11.4059
▁기획재정부	-11.4059
▁맡기	-11.4059
▁매뉴얼	-11.4059
▁악영향	-11.4059
▁디코더	-11.4059
▁브러시	-11.4059
▁필라멘트	-11.4059
▁희귀	-11.4059
▁핀테크	-11.4059
(450)	-11.4059
(340)	-11.4059
▁쿠폰	-11.4059
▁리뷰	-11.406
▁부산광역시	-11.406
▁화요일	-11.406
▁에이즈	-11.406
▁납입	-11.406
▁무역전쟁	-11.406
▁아픈	-11.406
(108)	-11.406
▁양이온	-11.406
▁평범	-11.4061
▁생애	-11.4061
▁출생	-11.4061
▁범행	-11.4061
▁숨졌다	-11.4061
▁KIA	-11.4061
▁평생교육	-11.4061
▁하시	-11.4061
▁알겠어요	-11.4061
▁제거하고	-11.4061
▁키움	-11.4062
▁허락	-11.4062
▁나눈	-11.4062
▁은폐	-11.4062
▁야채	-11.4062
▁즐겁게	-11.4063
▁항균	-11.4063
▁면책	-11.4063
▁철거	-11.4063
▁주머니	-11.4063
▁여행사	-11.4064
▁소폭	-11.4064
▁있었으며	-11.4064
▁지갑	-11.4065
▁유죄	-11.4065
▁영입	-11.4065
▁입체	-11.4065
▁기밀	-11.4066
▁늘려	-11.4066
▁수업이	-11.4066
59	-11.4067
▁스튜디오	-11.4067
▁동작하는	-11.4067
▁재치	-11.4067
▁공평	-11.4067
▁식별된	-11.4068
▁공백	-11.4069
▁투석	-11.407
▁자립	-11.407
▁싸우	-11.407
▁식각	-11.407
▁마주보	-11.4071
▁이뤄졌다	-11.4072
▁황금	-11.4072
▁단편	-11.4072
▁동래	-11.4072
▁비대칭	-11.4073
(35	-11.4073
원과	-11.4074
▁직권	-11.4074
▁반박	-11.4074
▁금연	-11.4076
▁동양	-11.4077
▁화석	-11.4078
▁대구시	-11.408
▁전세계	-11.4081
▁포털	-11.4082
▁알아보기	-11.4082
▁많아서	-11.4083
▁권유	-11.4084
▁몰리	-11.4085
▁제공되며	-11.4086
▁던지	-11.4087
▁애정	-11.4087
▁다음날	-11.4087
주체	-11.4087
▁원본	-11.4089
▁강연	-11.409
▁바이어스	-11.4091
▁의약	-11.4091
▁유익한	-11.4092
▁트레이	-11.4095
▁이름으로	-11.4096
▁살펴본다	-11.4097
▁한때	-11.4097
▁리스트를	-11.4097
▁슛	-11.4097
▁오목부	-11.4097
▁똑같은	-11.4097
▁퇴직	-11.4097
▁영원	-11.4097
▁하셨	-11.4098
▁변동이	-11.4098
호로	-11.4099
▁적층체	-11.41
▁보냈다	-11.4101
▁컨설팅	-11.4102
▁종사	-11.4103
▁실시예들은	-11.4103
▁가치에	-11.4104
▁부착되어	-11.4106
▁본딩	-11.4107
▁제공함으로써	-11.4107
▁왔어요	-11.4108
되는지	-11.4109
▁몰라	-11.411
▁감염이	-11.4111
▁미중	-11.4112
▁페스티벌	-11.4113
▁γ	-11.4113
▁시간대	-11.4115
▁대장	-11.4115
인들이	-11.4115
애하	-11.4116
▁구도	-11.4116
▁텐데	-11.4117
▁일본에	-11.4117
▁소극적	-11.4119
▁것인데	-11.4122
US	-11.4124
▁세운	-11.4124
▁제도에	-11.4126
▁부재에	-11.4128
▁개시된	-11.413
▁학계	-11.4132
▁상해	-11.4134
▁앤	-11.4134
▁가해자	-11.4135
▁그물	-11.4135
▁판단한	-11.4141
▁염소	-11.4141
▁그곳에서	-11.4143
▁협	-11.4144
▁전면에	-11.4144
체로	-11.4152
▁기차	-11.4152
으니까	-11.4153
▁요청했다	-11.4155
▁접하는	-11.4155
▁형이	-11.4158
안에	-11.4159
니스	-11.4159
▁위치한다	-11.4162
▁주시겠어요	-11.4162
06	-11.4163
▁민감도	-11.4164
▁경제적으로	-11.4166
▁당한	-11.4171
▁명에	-11.4172
▁유용성	-11.4176
▁협상이	-11.4176
▁사용료	-11.4178
▁반성	-11.4179
▁흐름도	-11.4179
▁명세서	-11.4179
▁새해	-11.418
▁거래소	-11.418
▁효과적이	-11.4181
▁용제	-11.4182
▁실행되는	-11.4183
▁수천	-11.4184
▁말하고	-11.4185
▁체육관	-11.4186
▁없었고	-11.4188
▁교육과	-11.4188
▁기기에	-11.419
▁요원	-11.419
▁k	-11.4195
▁기여하는	-11.4196
ment	-11.4196
▁비교하는	-11.4198
느라	-11.4199
▁기관에서	-11.4202
▁심도	-11.4202
▁노인의	-11.4203
▁중요도	-11.4203
▁통합된	-11.4205
▁산출부	-11.4208
▁이면	-11.4209
▁노사	-11.4211
▁예상했다	-11.4212
▁본교	-11.4212
▁대체할	-11.4212
▁이차	-11.4213
화되어	-11.4219
▁말하면	-11.422
▁다니는	-11.4223
▁마을로	-11.4224
최	-11.423
▁못하였다	-11.4231
▁피하기	-11.4233
▁둘러보	-11.4237
▁도매가	-11.4244
▁유지되는	-11.4245
▁성장세	-11.4245
군으로부터	-11.4246
-1)	-11.4246
설계	-11.4246
ly	-11.4248
▁증가에	-11.4248
▁추천해	-11.4251
▁끝나면	-11.4252
(41	-11.4255
▁엄	-11.4255
▁산성	-11.4255
봐야	-11.4259
▁목사	-11.4259
▁병상	-11.4261
▁안으로	-11.4263
빌	-11.4264
▁종류에	-11.4265
▁나지	-11.4265
3-	-11.4266
▁투자하는	-11.4266
종일	-11.4268
무용	-11.427
β	-11.4272
▁베이	-11.4272
맵	-11.4272
컵	-11.4273
즉	-11.4274
코리아	-11.4275
정이	-11.4275
바람	-11.4275
▁고려하지	-11.4276
수행	-11.4278
▁사업으로	-11.4284
이론	-11.4286
▁극한	-11.4291
▁먹었	-11.4293
▁공부를	-11.4298
현이	-11.4298
▁인지도	-11.4302
질러	-11.4304
IT	-11.4306
건이	-11.4308
▁향기	-11.4308
분류	-11.4309
포트	-11.4312
▁미안	-11.4314
레이션	-11.4315
▁고시	-11.4316
▁빠	-11.4318
CR	-11.4321
▁학기	-11.4322
▁증가와	-11.4325
▁마실	-11.433
▁아들이	-11.4331
▁자랑하는	-11.4336
▁적법	-11.4339
▁내수	-11.4342
보니	-11.4345
▁전역	-11.4349
▁에칭	-11.4349
▁헌	-11.435
76	-11.4353
하이	-11.4354
▁여행자	-11.4355
라이드	-11.4356
▁용량이	-11.4358
로스	-11.4358
▁설치한	-11.4362
▁독특	-11.4362
▁보여줄	-11.4364
▁이어가	-11.4365
▁선생	-11.4366
▁그에게	-11.4367
데다	-11.4368
▁찾아볼	-11.437
▁병렬	-11.4372
▁충	-11.4374
둥	-11.4374
▁보여준	-11.4376
∼20	-11.4377
▁윤리적	-11.4378
요금	-11.4378
▁감소된	-11.4379
▁후자	-11.4382
▁부드럽	-11.4383
▁시행하고	-11.4383
럼	-11.4386
변화	-11.4387
▁양태	-11.4388
▁층이	-11.439
▁삶에	-11.4391
▁판매자	-11.4392
∼6	-11.4392
▁85	-11.4392
▁하던	-11.4393
회전	-11.4395
▁고수	-11.4397
▁결승	-11.4397
▁칭	-11.4399
▁구성에	-11.44
▁링크를	-11.4403
▁계산할	-11.4406
▁합의한	-11.4409
클로	-11.4411
▁지니	-11.4412
▁심혈관	-11.4413
▁미끄럼	-11.4416
톨	-11.4416
▁낙동강	-11.4416
▁무렵	-11.4416
▁미네랄	-11.4416
▁인플레이션	-11.4416
▁캄보디아	-11.4416
▁컸다	-11.4416
▁프로모션	-11.4416
‧	-11.4416
▁천천히	-11.4416
펠	-11.4416
▁스트랩	-11.4416
▁촉발	-11.4416
▁공화당	-11.4416
▁챙기	-11.4416
▁받아들일	-11.4416
▁궤적	-11.4416
▁하노이	-11.4416
▁삼각	-11.4417
▁죄송하지만	-11.4417
제와	-11.4417
▁쉬워	-11.4418
▁있듯이	-11.4418
▁합쳐	-11.4418
▁압류	-11.4418
▁MRI	-11.4418
▁보습	-11.4418
(103)	-11.4419
▁신생아	-11.4419
▁할아버지	-11.442
▁상거래	-11.4421
▁생생	-11.4421
▁3-	-11.4422
▁발령	-11.4422
▁철강	-11.4423
▁환영합니다	-11.4423
▁다짐	-11.4423
분쯤	-11.4423
▁논리적	-11.4424
▁$	-11.4424
▁추모	-11.4425
▁위헌	-11.4425
▁나름	-11.4427
▁겹치	-11.4429
▁검체	-11.443
▁중시하	-11.443
▁중앙정부	-11.443
▁마련됐다	-11.4431
▁대도시	-11.4431
▁해킹	-11.4432
▁권선	-11.4432
▁수여	-11.4432
▁관장	-11.4433
▁이격되어	-11.4433
리오	-11.4433
▁차등	-11.4434
▁몫	-11.4435
▁미얀마	-11.4435
▁반출	-11.4435
▁가축	-11.4435
▁상영	-11.4437
▁받침대	-11.4439
▁대부분은	-11.4439
▁소프트	-11.444
▁마모	-11.444
책을	-11.4443
▁이어진	-11.4443
▁조심	-11.4444
동작	-11.4445
▁고생	-11.4445
▁미만인	-11.4445
▁마취	-11.4446
(27)	-11.4446
▁신규한	-11.4446
▁다루고	-11.4446
▁들어온	-11.4447
▁물론이고	-11.4449
실로	-11.4449
▁창문	-11.4449
권에	-11.445
학회	-11.445
▁하반기	-11.445
▁모드에	-11.4451
▁3,000	-11.4451
▁성실	-11.4453
줘서	-11.4454
베르	-11.4454
▁버섯	-11.4456
하시겠습니까	-11.4458
▁열었다	-11.4458
▁대대적	-11.4459
▁지난주	-11.4459
13)	-11.4459
▁목적에	-11.446
▁정성	-11.4461
▁옮기	-11.4463
▁온천	-11.4469
▁댄스	-11.4472
▁않았을	-11.4472
▁대우	-11.4473
▁주류	-11.4474
▁타단	-11.4474
▁찾아내	-11.4474
▁도전층	-11.4478
▁환기	-11.4478
▁아닌지	-11.4479
▁가용	-11.4479
▁판시	-11.4479
▁준비되어	-11.4481
▁외형	-11.4483
▁선체	-11.4485
▁초안	-11.4485
▁99	-11.4486
▁내부로	-11.4488
▁동결	-11.4491
▁급수	-11.4492
줘야	-11.4493
▁계속되고	-11.4494
▁고속도로	-11.4496
면에서	-11.4496
▁플라이	-11.45
▁역설	-11.45
▁전설	-11.4501
▁작곡가	-11.4501
▁식물성	-11.4504
▁하니	-11.4505
▁먹지	-11.4507
▁남용	-11.4507
▁솔로	-11.4508
▁내원	-11.4508
수입	-11.4512
▁것만	-11.4514
▁법원의	-11.4515
▁부대	-11.4519
▁금융권	-11.452
▁상시	-11.4521
▁벤처	-11.4525
▁떡	-11.4525
▁포럼	-11.4526
▁인정하고	-11.4529
시간을	-11.4531
▁거동	-11.4531
▁버리	-11.4533
▁내려가	-11.4533
▁발생했	-11.4533
▁전달되	-11.4533
▁119	-11.4534
▁그립	-11.4536
▁w	-11.4542
▁탈수	-11.4549
▁운명	-11.4554
▁수당	-11.4555
▁차로	-11.4556
▁시작되는	-11.4557
▁녹화	-11.4558
▁적용하였다	-11.4558
▁운영한다	-11.4561
SR	-11.4563
▁신생	-11.4565
법에서	-11.4566
▁서버로	-11.4568
▁당부	-11.457
▁묻는	-11.457
▁유사도	-11.4571
▁부천	-11.4571
▁재판부	-11.4572
▁남미	-11.4576
마리	-11.4576
▁부담한다	-11.4576
▁열대	-11.4578
▁공급부	-11.4579
▁상품에	-11.4586
▁영업이익	-11.4587
▁시력	-11.4587
▁세계적	-11.4588
▁발생해	-11.459
▁센서는	-11.4591
도서관	-11.4591
▁공통점	-11.4592
▁성장이	-11.4595
막이	-11.4597
▁진행해	-11.4598
▁피어	-11.4598
▁일본이	-11.46
▁102	-11.4601
▁내리는	-11.4603
▁지났	-11.4605
따	-11.4612
▁여기까지	-11.4612
▁실적이	-11.4612
맹	-11.4615
시키거나	-11.4616
▁개최한다	-11.4618
휘	-11.462
▁나면	-11.4623
▁양자화	-11.4624
▁관중	-11.4626
호는	-11.4626
▁성장할	-11.4628
화하여	-11.4632
▁요구하고	-11.4633
▁나라에서	-11.4634
▁증가로	-11.4635
▁3%	-11.4636
랜	-11.4637
랩	-11.464
깨	-11.4641
PD	-11.4642
밀도	-11.4643
서울특별시	-11.4643
협약	-11.4644
안이	-11.4645
디자인	-11.4646
▁자격이	-11.4646
▁분화	-11.4649
▁바람직하게	-11.4656
세율	-11.4657
등기	-11.466
5°	-11.4661
▁국민이	-11.4662
언어	-11.4662
사례	-11.4663
▁의존성	-11.4664
▁고형	-11.4667
-2-	-11.4668
▁부합	-11.4669
▁차이에	-11.4671
▁공간으로	-11.4673
FA	-11.4675
▁전도	-11.4675
선거	-11.4676
▁생각하지	-11.4676
데이	-11.4679
▁사건에서	-11.4687
▁발생된	-11.469
▁밀착	-11.4691
보안	-11.4692
▁돌파	-11.4693
에겐	-11.4694
▁투명한	-11.4695
▁전달하기	-11.4699
전환	-11.4699
FE	-11.4699
▁치과	-11.47
▁물질에	-11.4704
프리	-11.4705
▁이것들	-11.4707
▁마을이	-11.4708
▁서비스로	-11.4712
▁약한	-11.4712
▁발생이	-11.4714
▁망막	-11.4715
▁플랫폼에	-11.4715
▁정의한다	-11.4715
▁파는	-11.4719
▁잠정	-11.4723
▁인근에	-11.4724
▁저작권	-11.4726
▁조화를	-11.4726
▁성분으로	-11.473
▁점화	-11.4735
주민	-11.4735
겼	-11.4738
▁일대에	-11.4739
▁변화로	-11.474
▁71	-11.4742
▁72	-11.4745
곳에	-11.4747
시설의	-11.4748
▁지급한다	-11.4748
▁살아가	-11.4753
▁설명이	-11.4756
입자	-11.4761
▁할로겐	-11.4762
CD	-11.4763
지급	-11.4764
성으로	-11.4766
적이지	-11.4766
▁국토	-11.4768
▁지점에	-11.4769
▁회사채	-11.477
교실	-11.4771
▁양육	-11.4773
이네요	-11.4778
▁완충	-11.4778
▁모호	-11.4781
▁점착	-11.4782
▁봤어	-11.4782
▁음의	-11.4783
▁칫솔	-11.4784
▁하나입니다	-11.4784
▁괜찮아	-11.4784
▁정말로	-11.4785
조와	-11.4786
▁비영리	-11.4786
▁같지	-11.4786
▁꼽히	-11.4786
▁맡고	-11.4786
▁브라우저	-11.4786
▁않거나	-11.4786
▁읽는	-11.4786
▁자리매김	-11.4786
▁캐소드	-11.4786
▁현미경	-11.4786
▁시그널링	-11.4786
▁워낙	-11.4786
▁파우치	-11.4786
▁금융감독원	-11.4786
▁바인딩	-11.4786
▁온난화	-11.4786
▁텔레비전	-11.4786
▁공매도	-11.4786
▁워터	-11.4786
▁스프레이	-11.4787
▁자율주행	-11.4787
▁궤도	-11.4787
(190)	-11.4787
▁존엄	-11.4787
야말로	-11.4787
▁베이킹	-11.4787
▁캡쳐	-11.4787
▁스탠드	-11.4787
▁메쉬	-11.4787
▁게이트웨이	-11.4787
▁벨기에	-11.4787
▁피봇	-11.4787
▁손잡이	-11.4788
▁전화번호	-11.4788
▁캠핑	-11.4788
▁대주주	-11.4788
분말	-11.4788
▁가리키	-11.4788
▁메탈	-11.4789
▁1989	-11.4789
▁관습	-11.4789
▁있었으나	-11.4789
▁취향	-11.4789
▁얽	-11.479
▁비판이	-11.479
▁안착	-11.479
▁비접촉	-11.479
▁재능	-11.4791
(202)	-11.4791
▁계통	-11.4791
▁청약	-11.4792
▁지방족	-11.4792
▁보내드립니다	-11.4792
▁누설	-11.4792
▁있겠다	-11.4792
▁얼마인가요	-11.4793
▁사슬	-11.4793
▁체온	-11.4794
▁상속세	-11.4794
▁행태	-11.4794
▁치르	-11.4794
▁바에	-11.4794
▁계신	-11.4795
▁영토	-11.4797
▁발생률	-11.4797
▁열악	-11.4797
▁시효	-11.4798
▁급감	-11.4798
▁세종	-11.4798
▁단절	-11.4798
▁고착	-11.4798
▁건강관리	-11.4799
▁외출	-11.4799
▁재정적	-11.4799
▁내비게이션	-11.48
▁유화	-11.4801
▁메르스	-11.4802
강도	-11.4803
▁음반	-11.4805
▁겁	-11.4805
▁방학	-11.4805
▁장래	-11.4805
▁신종플루	-11.4806
▁산불	-11.4806
장님	-11.4806
▁거기서	-11.4806
▁범용	-11.4807
▁경미	-11.4807
▁맞습니다	-11.4808
▁사본	-11.4808
▁인용해	-11.4808
▁영양소	-11.4809
▁립	-11.4809
▁상방	-11.481
▁참고하여	-11.4811
▁카카오	-11.4811
▁인천광역시	-11.4812
▁금융회사	-11.4812
▁매개체	-11.4814
▁검찰이	-11.4814
▁외국어	-11.4815
▁세율	-11.4816
▁모인	-11.4817
▁재학	-11.4817
▁관심사	-11.4818
▁감소시키고	-11.4818
▁유니	-11.4819
▁삼각형	-11.4821
(80)	-11.4821
▁아일랜드	-11.4822
▁WTO	-11.4823
▁분실	-11.4823
▁유감	-11.4823
▁전통시장	-11.4825
ion	-11.4826
▁단부에	-11.4827
▁차지한다	-11.4827
▁끄	-11.4828
▁등록된	-11.4829
▁한옥	-11.483
▁성장과	-11.483
▁농사	-11.4832
▁등산	-11.4834
▁흔들	-11.4836
▁출국	-11.4837
자유	-11.4838
▁높아진다	-11.4838
▁교량	-11.4839
▁적합하게	-11.484
▁통과한	-11.4841
화한	-11.4841
분할	-11.4842
▁충분하지	-11.4844
▁분단	-11.4844
▁공정위	-11.4845
개사	-11.4846
점에서	-11.4847
▁일어나고	-11.4847
▁성폭력	-11.485
▁정점	-11.4851
▁학년	-11.4851
▁사람으로	-11.4852
▁당기	-11.4854
▁맞서	-11.4855
▁생긴다	-11.4856
▁이뤄지고	-11.486
(=	-11.486
▁조립체는	-11.4861
51	-11.4862
어져	-11.4863
▁활용되고	-11.4864
GB	-11.4866
▁형제	-11.4867
▁58	-11.4867
▁구민	-11.4868
▁주장하고	-11.4868
▁사용함으로써	-11.4868
▁병실	-11.487
▁Mn	-11.487
판결	-11.4871
~5	-11.4871
▁애플리케이션에	-11.4872
▁물과	-11.4874
▁예선	-11.4876
▁유닛에	-11.4879
▁대학에서	-11.4881
▁제안한	-11.4881
체가	-11.4882
▁생겼다	-11.4883
▁분량	-11.4883
um	-11.4883
▁펼쳐지	-11.4884
▁해당한다고	-11.4886
▁설사	-11.4887
▁미션	-11.4888
값에	-11.4889
▁내적	-11.4892
▁세법	-11.4893
▁번식	-11.4894
▁주문이	-11.4896
하듯	-11.4901
보는	-11.4903
▁직접적	-11.4903
▁냉각수	-11.4904
▁군에서	-11.4905
철도	-11.4906
▁요인에	-11.4906
명에게	-11.4907
▁수행된다	-11.4909
▁기본법	-11.4909
식물	-11.4914
▁외화	-11.4919
▁마련된다	-11.492
▁명세서에서	-11.4921
5-	-11.4922
ce	-11.4924
▁상권	-11.4924
▁CH	-11.4925
▁확장된	-11.4926
▁행보	-11.4927
▁소개하는	-11.493
음이	-11.493
▁대신에	-11.4932
▁장치들	-11.4934
념	-11.4936
▁열리	-11.4937
▁자원이	-11.4937
▁간판	-11.4938
▁의존도	-11.4938
지역에	-11.4942
▁교육감	-11.4947
▁중입니다	-11.495
▁중심이	-11.495
▁향상에	-11.495
▁비드	-11.4951
▁충분하다	-11.4951
▁0.8	-11.4953
▁수신하여	-11.4953
▁위험에	-11.4955
▁발전과	-11.4955
LS	-11.4959
▁되었	-11.496
▁능동적	-11.4962
▁값과	-11.4963
▁지향성	-11.4963
▁국가별	-11.4965
▁설치된다	-11.4965
▁강하	-11.497
▁나타내	-11.497
속도로	-11.4971
▁시작되었다	-11.4972
▁지장	-11.4973
▁유효한	-11.4976
▁조사에	-11.4978
▁46	-11.4978
▁영세	-11.4982
▁로고	-11.4983
▁박수	-11.499
ml	-11.4991
▁유지한다	-11.4992
▁너무나	-11.4994
끈	-11.4994
방금	-11.4995
▁차기	-11.4999
▁반영한	-11.5
▁짝	-11.5001
▁학문적	-11.5001
▁보도에	-11.5001
실에	-11.5002
▁상반	-11.5008
▁아래에서	-11.501
눈	-11.5011
▁직원들이	-11.5013
오픈	-11.5013
▁동작할	-11.5013
▁시스템으로	-11.5014
▁고양	-11.5014
▁분석된다	-11.5017
▁되었다고	-11.5018
▁어셈블리는	-11.5019
▁수질	-11.5021
촬영	-11.5022
원장	-11.5024
전문가	-11.5024
헤	-11.5024
▁측정하여	-11.5025
▁국제법	-11.5026
엠	-11.5026
끝	-11.5026
왜	-11.5029
콘텐츠	-11.5029
특별	-11.5029
부장	-11.5029
▁제품들	-11.5032
▁선상	-11.5032
▁이목	-11.5035
시행	-11.5036
▁여러분들	-11.5039
▁세액	-11.5042
▁부문에서	-11.5044
▁기공	-11.5045
▁크기에	-11.5046
▁비정상	-11.5048
▁마련할	-11.5048
백신	-11.5049
(34	-11.505
하나요	-11.5051
▁계획하고	-11.5051
▁구분할	-11.5051
신가요	-11.5053
▁변인	-11.5054
▁사안에	-11.5063
▁우한	-11.5064
▁소개하고	-11.5064
예산	-11.5067
▁무형	-11.5067
▁받아들여	-11.507
▁조례는	-11.5071
73	-11.5072
▁손흥민이	-11.5072
▁개발했다	-11.5075
▁사이로	-11.5076
▁조항이	-11.5082
CE	-11.509
▁플루	-11.5094
자격	-11.5095
▁설명하고	-11.5095
▁전화기	-11.5097
▁모은	-11.5103
▁공급하기	-11.5104
면적	-11.5104
▁환자에	-11.5105
▁달아	-11.5106
▁각도를	-11.5108
▁최적화된	-11.5115
▁210	-11.5115
▁총수	-11.5119
▁완료된	-11.512
▁학부모님들	-11.5125
했었다	-11.5125
▁보험계약	-11.5126
주면	-11.5126
▁커지는	-11.5127
ut	-11.5128
▁다루	-11.513
▁측정하기	-11.5131
▁학자들	-11.5131
▁가정의	-11.5136
▁감싸	-11.5137
▁범위는	-11.5139
하기만	-11.514
▁면적이	-11.5141
)-	-11.5142
커버	-11.5146
▁희석	-11.5148
사에서	-11.5148
들었어요	-11.5149
▁개선이	-11.5152
▁캘리포니아	-11.5155
▁OS	-11.5158
▁적용이	-11.5158
▁2%	-11.5162
▁민속	-11.5164
▁설치하여	-11.5165
믹	-11.5167
▁트랜스	-11.5171
▁가금류	-11.5171
▁곰팡이	-11.5171
▁덴마크	-11.5171
▁랜드마크	-11.5171
▁백악관	-11.5171
▁아시아나항공	-11.5171
▁앓고	-11.5171
▁어쩔	-11.5171
▁여드름	-11.5171
▁영유아	-11.5171
▁캐리지	-11.5171
▁클래식	-11.5171
▁태어난	-11.5171
▁트래픽	-11.5171
▁트위터	-11.5171
▁샴푸	-11.5171
▁셀룰로오스	-11.5171
▁'2019	-11.5171
텔레콤	-11.5171
▁연료전지	-11.5171
▁결핍	-11.5171
▁공소사실	-11.5171
▁고위험	-11.5171
▁드러냈다	-11.5171
▁호랑이	-11.5171
▁파일럿	-11.5171
▁구매하는	-11.5171
▁디젤	-11.5172
▁특별관계자	-11.5172
▁안타까	-11.5172
▁모르겠습니다	-11.5172
(+)	-11.5172
▁공략	-11.5172
▁화웨이	-11.5172
▁떨어질	-11.5172
▁짐작	-11.5172
노조	-11.5172
▁기설정	-11.5173
▁유로존	-11.5173
▁1996	-11.5173
▁불참	-11.5174
▁1997	-11.5174
▁상쇄	-11.5174
▁흙	-11.5174
▁내륙	-11.5174
▁재사용	-11.5174
(131)	-11.5174
▁색채	-11.5175
▁고전압	-11.5175
▁회생	-11.5175
▁환급	-11.5175
▁지역별	-11.5175
▁계승	-11.5176
▁요철	-11.5176
▁청색	-11.5176
and	-11.5176
▁거세	-11.5176
▁여부와	-11.5177
▁파급	-11.5177
▁마이크로파	-11.5177
▁정답	-11.5178
▁직류	-11.5178
▁창의성	-11.5178
▁호남	-11.5178
▁선보였다	-11.518
▁비정규직	-11.518
▁1950	-11.518
▁수정된	-11.518
▁임대료	-11.518
▁적색	-11.518
▁파업	-11.5181
▁작품들	-11.5181
▁모범	-11.5181
▁페이스트	-11.5181
전달	-11.5182
▁후퇴	-11.5182
▁분출	-11.5182
▁출사	-11.5182
▁혈장	-11.5182
▁증여세	-11.5183
▁행정처분	-11.5184
▁양립	-11.5184
▁침실	-11.5184
정부가	-11.5185
▁한눈	-11.5185
▁아시안게임	-11.5185
▁록	-11.5186
▁공약	-11.5186
자산운용	-11.5186
▁면밀	-11.5187
▁차입	-11.5188
▁푸시	-11.5188
억원으로	-11.519
▁커서	-11.5191
사단	-11.5191
▁샌드위치	-11.5191
▁지방정부	-11.5192
▁가발	-11.5193
▁PE	-11.5193
▁발진기	-11.5193
▁전해액	-11.5194
학원	-11.5195
▁여러가지	-11.5195
▁몰수	-11.5196
폴리	-11.5197
▁모방	-11.5197
▁유역	-11.5199
▁끝났	-11.5199
여기	-11.5199
▁스케일	-11.5199
드리고	-11.52
▁조합에	-11.52
▁나만	-11.5201
▁실행하는	-11.5201
▁플래시	-11.5201
▁체내	-11.5201
▁관상	-11.5202
▁신도	-11.5202
▁말초	-11.5204
▁옛날	-11.5204
▁체감	-11.5205
▁중학생	-11.5206
제로서	-11.5206
극장	-11.5207
▁갤럭시	-11.5208
▁벌이고	-11.5211
▁플랜지부	-11.5211
▁포장체	-11.5211
▁근거리	-11.5211
te	-11.5214
▁권리가	-11.5215
▁견제	-11.5217
▁않으면서	-11.5218
▁발표된	-11.5218
▁이메일에	-11.5218
▁중량부	-11.522
▁선보인다	-11.522
▁파악됐다	-11.522
▁과학자들	-11.5221
하셔	-11.5221
▁누나	-11.5221
▁골수	-11.5222
(43	-11.5223
▁보호자	-11.5224
▁하신	-11.5224
되었으나	-11.5224
▁IMF	-11.5226
SiO	-11.5229
▁촉진하는	-11.523
▁사용됩니다	-11.5232
▁지목	-11.5233
▁그만	-11.5234
▁장착되는	-11.5235
▁지역에서는	-11.5235
▁동쪽으로	-11.5236
▁평야	-11.5239
▁작전	-11.524
▁서쪽으로	-11.5242
▁여겨진	-11.5243
▁흔적	-11.5243
▁지리	-11.5244
킨다	-11.5244
▁정리하고	-11.5246
수술	-11.5248
▁기대합니다	-11.5249
▁예로서	-11.525
▁발라	-11.5251
▁휘발성	-11.5254
RO	-11.5255
▁관찰되지	-11.5256
▁환경부	-11.5258
▁홈런	-11.526
▁이물질	-11.5261
▁자체적으로	-11.5262
▁오염된	-11.5263
▁입수	-11.5264
▁감소시켜	-11.5265
▁주기적	-11.5266
▁북쪽으로	-11.5268
겐	-11.5268
▁생존율	-11.5268
연수	-11.527
▁이벤트에	-11.5271
▁제형	-11.5272
▁정한다	-11.5272
▁창구	-11.5275
▁여름에	-11.5275
▁인지적	-11.5277
▁사용했다	-11.528
▁노트	-11.5283
또	-11.5286
▁접시	-11.5287
▁먹어야	-11.5288
EL	-11.529
▁멀	-11.5294
사용자	-11.5295
▁0.7	-11.5298
▁알킬기	-11.5299
제작	-11.53
▁곳곳	-11.53
▁손실이	-11.5303
▁선정됐다	-11.5304
▁간과	-11.5304
▁기후변화에	-11.5305
▁용도로	-11.5307
▁먹기	-11.5307
▁천장	-11.5308
▁양이	-11.5308
▁이용하면	-11.5308
▁공개한	-11.5309
▁결성	-11.5309
▁항만	-11.5312
▁비료	-11.5313
▁의원들	-11.5313
고용	-11.5314
서운	-11.5315
▁융자	-11.5317
하길	-11.5318
▁개학	-11.5318
▁의도에	-11.5321
▁도착할	-11.5321
▁국가적	-11.5323
지인	-11.5323
▁남기	-11.5324
사들이	-11.5325
▁보고된	-11.5327
광장	-11.5328
▁치료는	-11.5328
▁무선으로	-11.5339
▁101	-11.5339
▁앙	-11.5342
▁불만이	-11.5345
다시	-11.5346
▁주제에	-11.5347
41	-11.5352
레인	-11.5354
▁측정치	-11.5355
장소	-11.5361
▁살펴	-11.5362
▁친구들이	-11.5364
▁공정에	-11.5365
LA	-11.5366
▁SW	-11.5366
▁수련	-11.5374
▁걸로	-11.5374
었으면	-11.5375
▁총선	-11.5375
▁알지	-11.5375
▁하니까	-11.5378
▁결합한	-11.538
iv	-11.5382
▁넘기	-11.5387
▁처음에는	-11.5388
▁마음으로	-11.5388
천면	-11.5393
▁자유주의	-11.5395
▁변환된	-11.5396
▁나오지	-11.5398
77	-11.5402
▁부근	-11.5406
▁하죠	-11.5407
▁일하고	-11.5408
▁지불할	-11.5409
▁정정	-11.5411
▁학습에	-11.5412
▁항목에	-11.5413
-3-	-11.5414
마일	-11.5416
룩	-11.5416
닥	-11.5418
4-	-11.5418
▁받으	-11.5422
▁식이	-11.5423
▁생산된	-11.5424
▁불어	-11.5425
갑니다	-11.5428
빵	-11.5428
▁넣는	-11.5428
필름	-11.5428
숲	-11.5428
▁밀어	-11.543
구성	-11.5432
▁장사	-11.5434
▁내년에	-11.5435
특이적	-11.5435
▁계산하는	-11.5435
▁보내주신	-11.5436
▁전문가들의	-11.5438
중학교	-11.5438
너무	-11.5438
▁쪽에서	-11.5438
▁문명	-11.5442
▁생계	-11.5442
▁보내드리	-11.5442
▁중남미	-11.5445
▁거론	-11.5445
(200	-11.5447
▁출력된	-11.5449
▁양해	-11.5449
우는	-11.5451
SE	-11.5452
조작	-11.5453
하였음	-11.546
PE	-11.5465
UN	-11.5466
해준다	-11.547
93	-11.547
▁외주면	-11.5471
▁봐도	-11.5473
▁진도	-11.5474
질량부	-11.5475
▁진출한	-11.5477
▁바위	-11.548
▁IB	-11.5483
▁적고	-11.5484
▁국적	-11.5486
항에서	-11.5491
▁포함돼	-11.5492
사적	-11.5498
▁암시	-11.55
▁정의하는	-11.5503
체에	-11.5503
▁전형적	-11.5506
▁일에	-11.5507
▁지켜보	-11.5507
▁개재	-11.5515
▁92	-11.5517
1~	-11.5517
▁선택해	-11.552
▁선적	-11.5525
▁옵션이	-11.5529
심리	-11.5529
▁친구와	-11.553
▁작가들	-11.5531
주시면	-11.5532
사이드	-11.5533
든지	-11.5536
▁이룬	-11.5538
▁채로	-11.5538
▁옛날에	-11.5539
래요	-11.5541
▁평탄	-11.5542
▁절곡	-11.5543
까지만	-11.5546
공정	-11.5547
실적	-11.5548
▁IS	-11.5549
▁민주적	-11.5549
▁머	-11.5549
▁확정된	-11.5554
▁정의하고	-11.5554
▁탄산	-11.5555
▁언제든	-11.5555
-10	-11.5555
회장	-11.5558
계에	-11.5558
▁전술	-11.5561
▁침전	-11.5564
▁혼합된	-11.5565
▁사흘	-11.5567
▁지속성	-11.5567
▁드렸	-11.5567
키로	-11.5569
깔	-11.5569
▁인격	-11.5569
▁조종	-11.557
회에	-11.557
▁○○	-11.5571
▁가깝다	-11.5571
▁감사드리며	-11.5571
▁골키퍼	-11.5571
▁렌더링	-11.5571
▁맺고	-11.5571
▁바깥쪽	-11.5571
▁샐러드	-11.5571
▁스테로이드	-11.5571
▁쏠리	-11.5571
▁않더라도	-11.5571
▁암모니아	-11.5571
▁엠보스	-11.5571
▁오스트리아	-11.5571
▁움직일	-11.5571
▁제올라이트	-11.5571
▁캐비닛	-11.5571
▁펼쳤	-11.5571
▁아스팔트	-11.5571
▁토마토	-11.5571
▁최고경영자	-11.5571
▁스크류	-11.5571
▁잉여	-11.5571
▁브라켓	-11.5571
▁얼룩	-11.5571
▁레이아웃	-11.5571
▁칼럼	-11.5571
▁익숙하	-11.5571
▁주주총회	-11.5571
▁토끼	-11.5572
▁배기가스	-11.5572
▁검은색	-11.5572
▁마이크로폰	-11.5572
(520)	-11.5572
▁가짜	-11.5572
▁전자담배	-11.5572
(125)	-11.5573
▁크로마	-11.5573
▁리셋	-11.5573
▁할게요	-11.5573
▁CSR	-11.5573
▁물론이죠	-11.5573
▁발생하기	-11.5573
▁흰	-11.5573
▁흑연	-11.5574
▁쿠바	-11.5574
▁부활	-11.5574
▁왕복	-11.5574
▁히트	-11.5574
▁콜센터	-11.5574
▁증감	-11.5575
▁거짓	-11.5575
0,000	-11.5575
▁협동	-11.5575
▁탈락	-11.5575
▁구조조정	-11.5575
▁시민단체	-11.5575
▁분담	-11.5575
▁부위원장	-11.5575
▁이어폰	-11.5575
▁과반수	-11.5576
▁급등	-11.5576
▁적립	-11.5577
▁치약	-11.5577
▁하니스	-11.5577
▁배울	-11.5578
▁종결	-11.5578
▁CP	-11.5578
▁자택	-11.5578
▁시상식	-11.5578
▁계란	-11.5578
▁비수	-11.5578
▁완치	-11.5579
▁잠실	-11.5579
▁여의도	-11.558
▁백색	-11.558
▁천안	-11.558
▁요구했다	-11.558
▁불복	-11.5581
▁식민지	-11.5582
▁마쳤다	-11.5583
Hz	-11.5583
▁의거하여	-11.5584
▁취미	-11.5584
▁반입	-11.5584
▁모이	-11.5585
▁뒤집	-11.5585
▁풍력	-11.5586
▁예열	-11.5586
▁첫날	-11.5587
▁육군	-11.5588
▁입양	-11.5588
▁학력	-11.5589
▁법무부	-11.5589
▁화질	-11.559
▁곡률	-11.5591
▁갓	-11.5592
MD	-11.5593
▁파트	-11.5593
▁서방	-11.5594
▁김태	-11.5596
▁심재	-11.5599
▁비활성화	-11.56
▁재배치	-11.56
▁젊은이들	-11.5601
▁관절염	-11.5602
▁내벽	-11.5602
▁Li	-11.5603
▁아카데미	-11.5604
▁산모	-11.5604
▁평행하게	-11.5605
▁기류	-11.5605
▁불렀다	-11.5605
▁산란	-11.5606
▁갈아	-11.5606
▁형성되며	-11.5606
▁변형된	-11.5606
▁KBS	-11.5608
▁190	-11.5608
▁경제성	-11.5609
▁가용성	-11.5609
▁오토	-11.5609
▁펼치고	-11.5609
ED	-11.5609
▁테두리	-11.5609
▁장시간	-11.5611
개념	-11.5611
▁업무에	-11.5612
▁이용에	-11.5613
억달러	-11.5614
라이트	-11.5614
▁전달한다	-11.5615
92	-11.5615
▁가요	-11.5615
▁해고	-11.5616
▁유효량	-11.5616
▁함유되어	-11.5616
▁주저	-11.5617
▁떨어졌다	-11.5617
▁용이하고	-11.5618
▁FC	-11.5618
▁다발	-11.5619
▁외관을	-11.5619
였다고	-11.5619
▁바늘	-11.5619
▁사면	-11.5619
com	-11.562
▁항구	-11.562
▁아니며	-11.562
TF	-11.5621
▁종로구	-11.5621
▁형태에	-11.5622
(70	-11.5622
▁통기성	-11.5623
▁우세	-11.5624
▁촬영된	-11.5624
▁원료로	-11.5627
▁산출한다	-11.5629
▁대부	-11.5629
▁무단	-11.5629
▁확인했습니다	-11.563
▁호텔에서	-11.563
▁이루어지기	-11.563
▁안양	-11.5631
▁양질	-11.5631
▁기질	-11.5631
▁간사	-11.5632
해지면서	-11.5632
▁분야로	-11.5633
▁그쪽	-11.5635
16)	-11.5636
▁메모리에	-11.5638
▁중간에	-11.5641
▁휘도	-11.5642
▁신축성	-11.5643
▁모델로	-11.5644
▁청구서	-11.5646
해줄	-11.5647
▁근사	-11.5647
▁표명	-11.5648
▁아크릴	-11.5649
▁Sn	-11.5649
▁시작하기	-11.5651
-4-	-11.5651
▁개념과	-11.5652
▁연령대	-11.5653
14)	-11.5653
▁해보	-11.5654
폴	-11.5656
▁자선	-11.5657
▁올리고	-11.5659
▁공급자	-11.5661
드문	-11.5661
양성	-11.5662
▁지역주민	-11.5662
▁정리해	-11.5662
▁학급	-11.5663
▁소형화	-11.5665
로킹	-11.5666
▁권한이	-11.5667
▁끝나	-11.5668
▁많았고	-11.567
▁활용하고	-11.567
▁미쳤	-11.567
▁배우는	-11.5673
▁발신	-11.5673
▁대책이	-11.5674
▁발생하면	-11.5676
▁가져와	-11.568
▁베이스부	-11.5682
총생산	-11.5685
▁기업가	-11.5686
▁폴더	-11.5686
▁이동식	-11.5686
▁이견	-11.5689
연대	-11.569
▁입시	-11.5691
▁중심에	-11.5691
▁보험에	-11.5692
▁환자들이	-11.5693
▁기술력	-11.5694
▁바닥부	-11.5702
▁공존	-11.5702
달라고	-11.5704
▁시행한	-11.5705
▁훈	-11.5706
워드	-11.5706
▁적층된	-11.5709
▁캡슐	-11.5712
▁방지하고	-11.5712
▁감소한다	-11.5713
▁운영된다	-11.5714
▁표현할	-11.5715
▁라인은	-11.5716
▁국수	-11.5718
TP	-11.5719
공유	-11.5719
▁당시에는	-11.572
스크	-11.5721
로프	-11.5726
▁작다	-11.5726
단계에서	-11.5727
(32	-11.573
▁화성	-11.5732
▁설정한	-11.5732
▁유형별	-11.5733
▁활성화에	-11.5733
써	-11.5735
▁공정한	-11.5736
▁인성	-11.5736
▁소주	-11.574
▁세상에	-11.5741
▁주장에	-11.5746
▁교육청	-11.5746
▁수요자	-11.5749
담당	-11.5751
▁수성	-11.5751
▁추정되는	-11.5752
영업	-11.5752
▁정형	-11.5753
하네	-11.5753
▁반영해	-11.576
▁최다	-11.5762
▁황산	-11.5769
▁고객과	-11.577
▁가스화	-11.5771
Al	-11.5773
▁없는데	-11.5777
▁수행되	-11.5779
폭이	-11.5781
평화	-11.5782
하니까	-11.5791
▁해석하는	-11.5791
▁설문지	-11.5796
OL	-11.5799
문학	-11.5802
지식	-11.5802
▁모습은	-11.5803
▁시중	-11.5804
▁실시된	-11.5812
▁해결해	-11.5813
▁듣는	-11.5815
효율	-11.5818
값은	-11.582
▁한계점	-11.582
▁정도에	-11.5822
▁왔는데	-11.5824
▁반영하지	-11.5825
▁관광객이	-11.583
빠	-11.583
▁움직임에	-11.5831
▁보행자	-11.5832
▁의학적	-11.5834
▁파고	-11.5837
CP	-11.5837
▁측에서	-11.5841
컴	-11.5841
▁목록에	-11.5842
잠	-11.5843
로우	-11.5843
붙	-11.5844
▁성장에	-11.5844
-0	-11.5844
밴드	-11.5845
점검	-11.5848
이었지만	-11.5849
진짜	-11.5849
UE	-11.5849
하우스	-11.585
▁여행객	-11.5851
▁명시적	-11.5852
▁개발된	-11.5852
화학식	-11.5853
검진	-11.5855
▁메커니즘은	-11.5859
▁꺾	-11.586
▁처리에	-11.586
▁감자	-11.5865
▁이뤄진	-11.5865
▁다자	-11.5869
대리	-11.5869
▁붙어	-11.587
구매	-11.587
사랑	-11.5873
▁이종	-11.5875
▁사정이	-11.5879
▁이밖에	-11.5879
PI	-11.5882
생성	-11.5884
▁멤버들	-11.5884
였어요	-11.5885
버리	-11.5889
▁비해서	-11.589
▁감도	-11.5891
▁위장	-11.5892
▁산업에서	-11.5893
▁평균값	-11.5893
협상	-11.5895
▁자신만	-11.5896
가공	-11.5896
▁쪽에	-11.5898
~10	-11.5898
리티	-11.5899
▁겹쳐	-11.5901
▁찾으	-11.5903
▁스핀	-11.5905
▁개소	-11.591
▁검토할	-11.5911
▁3000	-11.5913
▁해석에	-11.5913
▁단독으로	-11.5915
▁네트워크에	-11.5915
▁이해해	-11.5915
▁보고자	-11.5917
축구	-11.5917
▁중부	-11.5919
▁빨라	-11.5919
▁시스템들	-11.5919
▁잡았	-11.592
▁돕	-11.5924
▁받았다고	-11.5925
ME	-11.5928
▁탁	-11.5928
▁프레	-11.5928
관에서	-11.5931
▁부분들	-11.5932
▁게임에	-11.5935
▁언론이	-11.5941
▁시점이	-11.5942
▁영화제	-11.5944
▁장기적	-11.5945
TH	-11.5947
▁일자	-11.5948
▁구체적으로는	-11.5949
봐도	-11.5953
▁공급원	-11.5953
▁사라지	-11.5954
▁바이어	-11.5956
▁차수	-11.5956
큼	-11.5958
▁손상된	-11.5959
지역에서	-11.5962
▁날에	-11.5963
▁도선	-11.5963
▁기쁘	-11.5963
통화	-11.5966
▁전송된	-11.5967
버그	-11.5969
지출	-11.597
▁적절하	-11.5971
▁인산	-11.5972
▁59	-11.5972
▁증권사	-11.5972
▁상무	-11.5973
▁낙태	-11.5975
텔	-11.5975
SC	-11.5976
▁장악	-11.5979
▁된장	-11.5983
▁알았어	-11.5983
하였기	-11.5984
▁콘택	-11.5985
롬	-11.5986
▁의심되	-11.5986
▁그러니	-11.5986
▁불투명	-11.5986
▁신흥	-11.5987
±	-11.5988
▁어댑터	-11.5988
▁청정	-11.5988
▁걷기	-11.5988
▁넓고	-11.5988
▁레시피	-11.5988
▁리모델링	-11.5988
▁마스킹	-11.5988
▁메신저	-11.5988
▁섹터	-11.5988
▁스폿	-11.5988
▁식중독	-11.5988
▁어긋나	-11.5988
▁어시스턴트	-11.5988
▁찾지	-11.5988
▁클러치	-11.5988
▁트렌치	-11.5988
▁둥근	-11.5988
▁멸균	-11.5988
▁전자상거래	-11.5988
▁아이스크림	-11.5988
▁태권도	-11.5988
▁시너지	-11.5988
▁피사체	-11.5988
▁때때로	-11.5988
▁농작물	-11.5988
▁있으시다면	-11.5988
▁방과후학교	-11.5988
▁메이저리그	-11.5988
▁포획	-11.5988
▁빨간색	-11.5988
▁핵무기	-11.5988
▁이라크	-11.5988
▁블렌드	-11.5988
▁굴절률	-11.5989
▁댐퍼	-11.5989
▁나타났으며	-11.5989
▁프레임워크	-11.5989
▁증례	-11.5989
▁영웅	-11.5989
▁플렉시	-11.5989
▁마침내	-11.5989
(116)	-11.5989
▁아이폰	-11.599
▁정규직	-11.599
▁연쇄	-11.599
▁포스코	-11.599
▁불이익	-11.5991
(54)	-11.5991
▁닮	-11.5991
▁추락	-11.5992
▁포스터	-11.5992
▁무선통신	-11.5992
▁남학생	-11.5993
먼트	-11.5993
▁알려드리겠습니다	-11.5993
▁경합	-11.5993
▁게시판	-11.5993
▁근간	-11.5993
▁결심	-11.5994
▁쌍방	-11.5994
▁경품	-11.5994
▁채널이	-11.5995
▁벗어	-11.5995
▁발목	-11.5996
▁벌이	-11.5996
(62)	-11.5996
▁선별진료소	-11.5997
▁포르	-11.5998
▁풍속	-11.5998
▁완료되면	-11.5998
▁교란	-11.5999
▁남긴	-11.5999
▁관광산업	-11.6
▁고조	-11.6
해주신	-11.6
▁진영	-11.6001
▁있네요	-11.6001
▁팬들이	-11.6001
▁촬영한	-11.6002
▁실업률	-11.6002
▁증가된	-11.6002
▁원으로	-11.6003
▁나한테	-11.6003
▁청중	-11.6003
▁고립	-11.6005
▁없거나	-11.6005
ia	-11.6006
▁소거	-11.6007
▁배치되며	-11.6007
▁추산	-11.6009
▁너트	-11.601
▁결론적으로	-11.6012
(50	-11.6012
종양	-11.6013
▁극복하기	-11.6013
심의	-11.6014
▁괴사	-11.6014
▁단기간	-11.6015
▁금융사	-11.6016
▁1991	-11.6016
▁게시물	-11.6016
▁복호화	-11.6016
▁유포	-11.6016
▁드러내	-11.6016
▁연결되며	-11.6016
▁확산에	-11.6017
명이다	-11.6018
▁없지	-11.6019
▁게임이	-11.6019
▁파라	-11.602
되었어요	-11.6021
BC	-11.6024
▁본질적으로	-11.6025
▁나열	-11.6026
▁공식적으로	-11.6028
▁엔터테인먼트	-11.6028
▁유보	-11.6028
▁로비	-11.6029
▁보석	-11.6029
분리	-11.6029
▁민주화	-11.603
▁너비	-11.603
▁어음	-11.6031
▁해당하지	-11.6033
▁이룬다	-11.6033
등이	-11.6035
▁정관	-11.6036
▁제기된	-11.6036
▁역사상	-11.6038
진료	-11.6038
~20	-11.6038
▁나토	-11.6039
▁벼	-11.604
▁재판에	-11.6042
▁UV	-11.6043
▁지속되고	-11.6043
▁볼록부	-11.6043
▁끝나는	-11.6044
▁품종	-11.6045
▁성분은	-11.6045
사상	-11.6045
▁우정	-11.6045
운용	-11.6046
▁경상	-11.6048
유형	-11.6048
▁선진	-11.6048
▁같다고	-11.605
▁끝나고	-11.6051
▁구현하기	-11.6051
▁출고	-11.6051
▁셸	-11.6053
혈증	-11.6054
▁보냈	-11.6059
▁둘러싸고	-11.6059
▁노드들	-11.6059
▁대수	-11.6061
▁현실화	-11.6063
▁불가피한	-11.6064
▁가속도	-11.6065
▁은행이	-11.6066
▁능력에	-11.6067
▁딸이	-11.6067
▁겹	-11.6068
▁78	-11.6069
▁선수단	-11.6069
▁두어	-11.6074
▁담론	-11.6075
▁인조	-11.6076
▁함유량이	-11.608
▁대선	-11.608
▁난다	-11.6083
46	-11.6084
▁양방향	-11.6084
▁혈	-11.6084
▁함은	-11.6087
▁질병에	-11.6087
▁눈치	-11.609
위기	-11.6091
▁구호	-11.6093
▁무대에	-11.6093
▁마련하는	-11.6094
합의	-11.6097
▁일본과	-11.6098
▁성분과	-11.6098
▁제공하지	-11.61
▁김동	-11.61
대체	-11.61
저는	-11.61
▁상속인	-11.6101
▁서면	-11.6102
▁여수	-11.6102
▁집값	-11.6104
▁컷	-11.6105
▁영상에	-11.6105
▁무력	-11.6106
▁접합부	-11.6108
▁구문	-11.6108
▁소포	-11.6108
가능하다	-11.6109
기후	-11.611
▁여권	-11.611
▁투과성	-11.6112
▁좋아하지	-11.6112
▁만하다	-11.6112
▁건데	-11.6113
▁결장	-11.6113
▁분수	-11.6114
▁이산	-11.6114
▁배치를	-11.6114
▁동조	-11.6115
▁참여하여	-11.6115
▁종교적	-11.6116
▁이진	-11.6117
▁분명한	-11.6118
▁상주	-11.6119
▁제거된	-11.6119
▁하나님	-11.612
롭게	-11.612
식품	-11.612
▁기회로	-11.6124
▁디바이스가	-11.6126
▁방화	-11.6128
▁이론적으로	-11.6128
임에도	-11.6134
(36	-11.6136
▁예측하기	-11.6136
▁검출하기	-11.6138
▁가정용	-11.6139
▁마트	-11.6139
▁실행한다	-11.614
om	-11.6141
▁뜻한다	-11.6146
▁널	-11.6146
▁확대해	-11.6147
▁y	-11.6148
▁웹사이트에서	-11.615
min	-11.615
▁쳐	-11.6151
▁허용한다	-11.6152
LP	-11.6152
▁바가	-11.6152
곳이	-11.6154
개월이	-11.6158
▁변성	-11.6161
▁초래한다	-11.6161
들만	-11.6162
▁구체	-11.6165
▁활동하는	-11.6166
▁진지	-11.6166
▁비소	-11.6168
▁정상화	-11.6172
▁공주	-11.6172
위반	-11.6173
▁갖추어	-11.6175
▁0.9	-11.6178
제공	-11.6181
지능형	-11.6183
▁기여한	-11.6183
▁나아	-11.6184
ry	-11.6187
▁지나가	-11.6187
▁반응하여	-11.6187
▁이들에게	-11.6189
▁달라지	-11.6195
▁때보다	-11.6196
▁주도로	-11.6197
래도	-11.6199
▁강조한	-11.62
▁한식	-11.6201
▁조용	-11.6201
FI	-11.6206
플리	-11.6206
▁공용	-11.621
IR	-11.6211
▁동행	-11.6213
층으로	-11.6213
▁이쪽	-11.6218
▁76	-11.6219
쪽으로	-11.6222
ma	-11.6222
▁주사기	-11.6224
▁골라	-11.6226
▁확인해야	-11.6227
50°	-11.6228
▁그저	-11.6228
▁세월	-11.6231
인간	-11.6232
▁속도는	-11.6232
▁조도	-11.6235
▁성남	-11.6235
cc	-11.6235
▁능	-11.6236
▁님	-11.6236
AD	-11.624
▁동북아	-11.6247
▁의미로	-11.6248
▁세수	-11.625
▁내장된	-11.625
▁건지	-11.6254
하시길	-11.6255
▁서사	-11.6256
▁주시	-11.6256
▁아닐까	-11.6262
▁유사성	-11.6265
▁수행된	-11.6266
▁예술의	-11.6267
▁활용도	-11.6268
▁중량부의	-11.6269
▁배치하고	-11.6272
▁내포	-11.6273
찌	-11.6274
▁언급했다	-11.6276
효소	-11.6279
▁데이터로	-11.6279
아파트	-11.628
사이클	-11.628
블록	-11.6283
▁피난	-11.6285
▁경험에	-11.6285
필터	-11.6286
▁간담회	-11.629
▁배경에	-11.629
해왔	-11.6293
▁축산	-11.6295
연결	-11.6295
항목	-11.6295
론이	-11.6296
회담	-11.6296
▁IR	-11.6296
ine	-11.63
취소	-11.6302
원리	-11.6303
▁구간에	-11.6304
▁아티스트	-11.6305
▁의료용	-11.6306
▁나라에	-11.6307
▁소비량	-11.6307
▁인정하지	-11.6308
통계	-11.6308
▁이격	-11.6309
기획	-11.6309
안타	-11.6312
▁감정이	-11.6312
▁채널에	-11.6313
▁활동으로	-11.6315
▁충전제	-11.6316
로봇	-11.6316
▁상태인	-11.6321
▁불활성	-11.6321
▁SA	-11.6322
▁해주세요	-11.6325
▁해당된다	-11.6326
▁출판사	-11.6327
PR	-11.6328
의견	-11.6331
▁한중	-11.6331
▁잘라	-11.6333
▁위치로부터	-11.6334
부산	-11.6336
▁후보로	-11.6337
▁해시	-11.6338
▁김종	-11.6339
▁대회에	-11.634
▁까	-11.6341
id	-11.6345
재원	-11.6347
테크	-11.6348
ND	-11.6349
▁객체에	-11.6349
등을	-11.6351
산성	-11.6355
올해	-11.6356
▁기재되어	-11.6361
▁이격된	-11.6361
CA	-11.6364
▁판단이	-11.6367
▁균	-11.6368
(80	-11.6369
▁범위로	-11.6374
▁보증금	-11.6376
▁방식과	-11.6377
지침	-11.6377
헌법	-11.6378
▁주간	-11.6379
▁출시한	-11.638
접촉	-11.638
소방	-11.638
났다	-11.6384
▁창원	-11.6385
▁벗	-11.6386
▁올렸	-11.6387
교육과	-11.6387
릅니	-11.6387
▁걸렸	-11.6387
▁1∼2	-11.6387
▁다룬	-11.64
▁승무원	-11.6402
▁AT	-11.6403
▁조선의	-11.6405
▁다음주	-11.6405
분해	-11.6406
▁공작	-11.6407
공개	-11.6408
무기	-11.641
▁성공했다	-11.6412
▁PA	-11.6412
스티	-11.6412
구간	-11.6414
▁죄송	-11.6416
PT	-11.6417
▁중장기	-11.6417
퀴	-11.642
덤	-11.642
▁어우러	-11.6421
긋	-11.6422
▁머무	-11.6422
▁낚시	-11.6422
▁맡았	-11.6422
▁과학기술정보통신부	-11.6422
▁넉넉	-11.6422
▁노르웨이	-11.6422
▁놓인	-11.6422
▁대북제재	-11.6422
▁방탄소년단	-11.6422
▁밸런스	-11.6422
▁봤는데	-11.6422
▁식료품	-11.6422
▁애노드	-11.6422
▁일제강점기	-11.6422
▁잃었	-11.6422
▁있잖아	-11.6422
▁플럭스	-11.6422
넬	-11.6422
야겠어요	-11.6422
θ	-11.6422
▁뜨겁	-11.6422
▁리버풀	-11.6422
▁바이오매스	-11.6422
▁스파이크	-11.6422
▁인건비	-11.6422
▁리프트	-11.6423
▁아시다시피	-11.6423
▁유니폼	-11.6423
▁스트링	-11.6423
▁에이	-11.6423
▁애완동물	-11.6423
▁임산부	-11.6423
▁취약계층	-11.6423
▁억압	-11.6423
▁커널	-11.6423
▁커플	-11.6423
▁불일치	-11.6423
▁비선형	-11.6423
▁마사지	-11.6423
▁프라이머	-11.6423
▁스텐트	-11.6423
(810)	-11.6423
▁속옷	-11.6423
▁서브프레임	-11.6423
▁HCV	-11.6423
▁타당한	-11.6423
▁폴딩	-11.6423
▁매개변수	-11.6423
▁있으세요	-11.6423
▁어우러져	-11.6424
▁백라이트	-11.6424
(38)	-11.6424
▁샤워	-11.6424
▁PDU	-11.6424
(700)	-11.6424
▁벗어난	-11.6424
▁국립공원	-11.6424
▁퇴근	-11.6424
지어	-11.6424
▁반대쪽	-11.6424
▁격벽	-11.6424
(56)	-11.6425
▁누름	-11.6425
▁지배구조	-11.6425
▁아끼	-11.6425
(105)	-11.6425
▁퍼져	-11.6425
▁송풍	-11.6426
▁평창	-11.6426
▁의료기기	-11.6426
▁사다리	-11.6426
▁강좌	-11.6427
▁MC	-11.6427
▁태양열	-11.6428
▁봤어요	-11.6428
▁민생	-11.6428
▁계급	-11.6428
▁관료	-11.6428
▁혈전	-11.6429
▁안타깝게도	-11.6429
▁베타	-11.6429
▁파이	-11.6429
▁고객님께서	-11.6429
▁몰아	-11.643
▁이루어지며	-11.643
▁맛집	-11.643
▁입술	-11.643
▁산악	-11.6431
▁발매	-11.6431
▁고형분	-11.6431
(72)	-11.6431
▁광택	-11.6431
▁통계청	-11.6431
▁능선	-11.6432
▁다목적	-11.6433
▁대응이	-11.6433
▁사생활	-11.6433
▁조형물	-11.6435
▁사장님	-11.6435
▁번씩	-11.6436
▁간접적으로	-11.6437
▁펼쳐진다	-11.6437
▁벌어졌다	-11.6437
▁확보하고	-11.6437
▁드실	-11.6438
▁감수	-11.6438
내기	-11.6438
▁명절	-11.6438
▁티타늄	-11.6439
▁알아요	-11.6439
▁입각	-11.644
▁견적	-11.644
생활을	-11.644
▁산입	-11.6442
▁지령	-11.6443
▁지방도	-11.6444
▁세우고	-11.6445
▁군집	-11.6445
▁개개인	-11.6445
▁브렉시트	-11.6445
내지	-11.6445
▁방영	-11.6446
▁동남아	-11.6447
▁재산세	-11.6447
▁가난	-11.6447
▁공표	-11.6448
(55)	-11.6448
▁거뒀다	-11.6448
▁선포	-11.6449
▁필요하신	-11.645
▁여당	-11.645
▁절연체	-11.6451
▁환수	-11.6451
▁악용	-11.6451
▁경쟁을	-11.6453
▁사용하실	-11.6453
▁제한적	-11.6455
▁응시	-11.6456
▁보러	-11.6457
▁스페이스	-11.6459
▁또래	-11.6459
▁아크	-11.646
▁공판	-11.646
▁펜션	-11.646
▁구성요소들	-11.6461
▁예정이며	-11.6463
▁흥행	-11.6463
▁물건이	-11.6463
▁이미지들	-11.6464
▁그랜드	-11.6467
▁간직	-11.647
▁동구	-11.647
▁감수성	-11.647
▁사교육	-11.6471
의료원	-11.6472
▁교섭	-11.6472
▁접착층	-11.6474
▁단락	-11.6476
▁포함됐다	-11.6476
▁조사해	-11.6477
▁교재	-11.6478
▁줄기세포	-11.6479
▁떼	-11.6479
▁반등	-11.6479
▁준비할	-11.648
▁해발	-11.648
▁하는데요	-11.6481
▁관형	-11.6481
▁아니었다	-11.6484
▁신원	-11.6484
▁데크	-11.6485
▁종합적인	-11.6485
▁베개	-11.6486
▁면세점	-11.6487
▁보이지만	-11.6488
▁비판적	-11.6488
▁철수	-11.6488
▁구미	-11.6489
▁위함	-11.6491
▁생기면	-11.6492
지오	-11.6492
▁물질과	-11.6492
RA	-11.6492
대장	-11.6493
점수	-11.6493
▁수행한	-11.6493
간에	-11.6494
▁충전재	-11.6494
▁예상보다	-11.6496
▁통영	-11.6497
▁본부	-11.6499
▁접속되고	-11.6502
▁최소화하기	-11.6503
▁헌법상	-11.6504
거야	-11.6505
▁함유한다	-11.6505
▁학대	-11.6506
시켜야	-11.6506
▁기울	-11.6507
▁주변부	-11.6507
▁합치	-11.6508
보면	-11.6508
▁평가는	-11.6508
▁없이도	-11.6509
▁푸드	-11.651
▁신임	-11.651
▁의료비	-11.651
▁적용하기	-11.6513
▁궁금한	-11.6513
AB	-11.6513
▁각별	-11.6513
▁비건	-11.6514
▁금속판	-11.6516
▁RE	-11.6517
▁시행된	-11.6518
▁산화제	-11.6518
스카	-11.6519
▁화해	-11.652
▁중간체	-11.6522
분들	-11.6524
▁중기	-11.6524
관계에	-11.6525
마당	-11.6526
▁국가와	-11.6526
▁부호	-11.6527
▁줄어든다	-11.6528
▁대원	-11.6528
셨다	-11.6529
▁상면에	-11.6529
▁전직	-11.653
▁싸움	-11.6531
▁탄력성	-11.6535
▁스키	-11.6535
▁맞는지	-11.6535
감지	-11.6536
▁뱅크	-11.6537
▁전자장치	-11.6537
▁마르	-11.6539
▁칼라	-11.6539
61	-11.6542
▁월드	-11.6545
SD	-11.6547
▁랜	-11.6549
천억	-11.6552
▁모형에서	-11.6552
본부장	-11.6553
▁구매한	-11.6556
▁그리기	-11.6556
▁적분	-11.656
▁상승률	-11.6562
▁밑에	-11.6562
▁근거한	-11.6563
▁잡았다	-11.6564
▁지키	-11.6564
▁매체에	-11.6565
▁장애물	-11.6566
화와	-11.6568
▁계획입니다	-11.6573
▁제출하여	-11.6573
96	-11.6574
▁해치	-11.6575
▁송장	-11.6575
▁장군	-11.6575
▁실용	-11.6576
타르	-11.6577
▁과정으로	-11.6579
▁룩	-11.6583
이었다고	-11.6584
▁갑니다	-11.6585
▁활성제	-11.6586
▁조직이	-11.6586
▁각도로	-11.659
▁장수	-11.6592
▁취한	-11.6593
▁미분	-11.6599
▁뒤쪽	-11.6599
▁추정된	-11.6605
▁답했다	-11.6606
▁서해	-11.661
▁광선	-11.6611
▁회로에	-11.6612
▁하세요	-11.6615
▁뜨	-11.6622
▁걱정이	-11.6622
▁표면과	-11.6623
▁다들	-11.6624
▁성적이	-11.6626
됐는데	-11.6626
▁만들어내	-11.6629
▁학회	-11.6631
냐고	-11.6631
▁결정하도록	-11.6633
▁사서	-11.6634
▁감소를	-11.6635
었으며	-11.6635
▁시작된다	-11.6635
▁유대	-11.6635
권과	-11.6637
담당관	-11.6637
▁판사	-11.6638
▁괜찮을	-11.6641
▁레이	-11.6642
▁군주	-11.6642
▁동작들	-11.6644
▁내용물	-11.6644
▁수행했다	-11.6649
▁취지로	-11.6649
▁설정하여	-11.665
용성	-11.6656
▁마련이	-11.6659
▁수강	-11.6659
▁수용하고	-11.6659
▁돌보	-11.666
▁몸이	-11.6661
해주시기	-11.6661
▁감지부	-11.6663
▁미주	-11.6663
▁유지될	-11.6664
▁예수	-11.6665
▁홈페이지에	-11.6668
외교	-11.6676
▁락	-11.668
체와	-11.6682
▁드린	-11.6684
▁색상이	-11.6685
ase	-11.6686
기관이	-11.6692
▁지배적	-11.6692
사인	-11.6693
▁해외로	-11.6693
나갈	-11.6694
▁센서들	-11.67
▁주시고	-11.6701
▁습	-11.6706
▁검토해	-11.6706
▁가전	-11.6709
급여	-11.6715
과목	-11.6717
▁사용하기에	-11.6718
▁정확성	-11.6718
▁멈추	-11.6719
▁관심도	-11.6721
▁수납부	-11.6722
▁쇄	-11.6724
▁징	-11.6725
▁강재	-11.6725
▁결정한	-11.6725
경쟁	-11.6726
▁본체와	-11.673
▁본문	-11.673
통합	-11.6732
▁하되	-11.6733
▁들어와	-11.6733
빅	-11.6734
빔	-11.6734
초등학교	-11.6734
그러니까	-11.6734
화합물	-11.6735
▁유입되	-11.6735
오늘	-11.6738
▁남자가	-11.6738
되나요	-11.6738
∼10	-11.6739
민족	-11.674
신탁	-11.674
▁변환하는	-11.6741
▁판단부	-11.6742
조에서	-11.6742
투표	-11.6745
5,000	-11.6746
▁특수성	-11.6746
▁이동체	-11.6747
▁말하기	-11.6748
▁참가한	-11.675
▁생산자	-11.6755
▁만드	-11.6756
▁예정인	-11.6759
▁없어지	-11.6762
▁시행하는	-11.6763
NR	-11.6763
CT	-11.6765
▁제공되어	-11.6771
만족	-11.6772
▁사회적으로	-11.6774
우드	-11.6777
시설에	-11.6778
▁확대에	-11.6779
▁연관이	-11.6779
감소	-11.6782
니까요	-11.6782
저항	-11.6784
됐기	-11.6785
식별	-11.6788
▁책임자	-11.6791
회사의	-11.6792
▁우회	-11.6793
▁IV	-11.6794
▁생각에	-11.6795
▁측부	-11.6795
one	-11.6798
▁냈	-11.6802
▁사망했다	-11.6803
▁누르	-11.6811
▁할당된	-11.6812
▁종자	-11.6812
▁평가한다	-11.6815
▁몰랐	-11.6816
▁포항	-11.6818
▁방향은	-11.6818
▁일어났	-11.6819
▁다채	-11.6823
▁전국에	-11.6826
놨	-11.6826
▁공동주택	-11.6826
▁특별법	-11.683
▁가져온	-11.683
▁직렬	-11.6833
▁말로	-11.6834
84	-11.6836
▁벽에	-11.6838
▁체결한	-11.684
▁생겨	-11.6841
▁지방자치	-11.6844
▁확대하는	-11.6845
분자	-11.6852
▁사라진	-11.6853
▁순천	-11.6861
수당	-11.6862
▁플레이트에	-11.6864
▁윤곽	-11.6864
문항	-11.6868
▁귀하께	-11.687
물로	-11.6871
▁챔피언	-11.6873
▁부를	-11.6873
▁사실에	-11.6874
RE	-11.6874
▁실례	-11.6876
▁채널들	-11.6876
▁플랫	-11.6877
튜	-11.6877
앨	-11.6877
▁치솟	-11.6877
▁껍질	-11.6877
▁내마모성	-11.6877
▁넘어섰다	-11.6877
▁높였다	-11.6877
▁맑은	-11.6877
▁맡아	-11.6877
▁메카니즘	-11.6877
▁모스크바	-11.6877
▁서둘러	-11.6877
▁인코더	-11.6877
▁자카르타	-11.6877
▁찢어	-11.6877
▁폴리이미드	-11.6877
▁폴리펩티드	-11.6877
▁프로젝터	-11.6877
▁프로펠러	-11.6877
▁프린팅	-11.6877
▁헝가리	-11.6877
▁혈소판	-11.6877
▁흡음	-11.6877
텀	-11.6877
▁서초구	-11.6877
▁펄프	-11.6877
▁셰프	-11.6877
▁태어나	-11.6877
▁픽업	-11.6877
▁러닝	-11.6877
▁싱크	-11.6877
▁콘텐트	-11.6877
▁콜라겐	-11.6877
▁사모펀드	-11.6877
▁워크숍	-11.6877
▁폴리아미드	-11.6877
▁않으므로	-11.6877
▁강아지	-11.6877
▁개도국	-11.6877
▁예쁘	-11.6877
▁들지	-11.6878
▁바꿀	-11.6878
▁에탄올	-11.6878
▁일례로	-11.6878
▁압착	-11.6878
▁가상화폐	-11.6878
▁드레스	-11.6878
▁그다음	-11.6878
(710)	-11.6878
(118)	-11.6878
▁흰색	-11.6878
▁목요일	-11.6878
▁세무조사	-11.6878
▁안녕	-11.6879
▁채굴	-11.6879
(115)	-11.6879
▁NFC	-11.6879
▁악취	-11.6879
▁경기도지사	-11.688
▁재확인	-11.688
▁근절	-11.688
▁사시도	-11.688
▁문제해결	-11.688
▁여학생	-11.688
▁엑스선	-11.688
▁리턴	-11.688
▁해외여행	-11.6881
▁농약	-11.6881
▁학설	-11.6881
▁1994	-11.6881
▁톱니	-11.6881
▁회절	-11.6881
▁코스피	-11.6882
▁편견	-11.6882
▁밀려	-11.6882
▁키워	-11.6882
▁결속	-11.6882
▁충진	-11.6883
▁노원구	-11.6883
▁길거리	-11.6883
▁육아	-11.6884
▁강수량	-11.6885
▁일각에서	-11.6885
NO	-11.6885
▁물성	-11.6887
▁포토	-11.6887
▁과열	-11.6887
▁오존	-11.6888
▁향상시키고	-11.6888
▁혼동	-11.6888
▁저작물	-11.6888
▁경피	-11.6889
▁갈색	-11.6889
▁유추	-11.6889
▁조향	-11.689
▁기생	-11.689
▁늘어나면서	-11.6892
▁표출	-11.6894
▁잭	-11.6894
▁열매	-11.6894
▁토트넘	-11.6894
▁글에서	-11.6894
Cl	-11.6895
▁실정	-11.6897
▁세라믹스	-11.6898
▁이직	-11.6899
▁뮤	-11.69
▁도와줄	-11.69
▁어릴	-11.69
▁앞쪽	-11.69
▁해결하고	-11.6901
▁백금	-11.6901
▁싹	-11.6901
▁결산	-11.6902
▁도중	-11.6902
▁개량	-11.6902
▁광전	-11.6902
▁위암	-11.6903
▁연고	-11.6903
▁재편	-11.6903
▁신약	-11.6903
▁꼬리	-11.6905
5000	-11.6906
▁민간인	-11.6907
달러에	-11.6907
▁다르지	-11.6908
▁진행되며	-11.6908
▁강서구	-11.6908
▁개선하고	-11.6909
▁대박	-11.691
아시아	-11.691
체육	-11.6913
▁냉전	-11.6913
▁에스	-11.6916
▁용선	-11.6917
▁국토부	-11.6918
HA	-11.6918
▁점프	-11.6919
▁인식과	-11.6919
▁풍선	-11.692
▁무너지	-11.692
선과	-11.692
▁달린	-11.692
▁세르	-11.692
진행	-11.6921
▁연도별	-11.6921
▁디자이너	-11.6921
▁저널	-11.6923
크리	-11.6924
▁정유	-11.6925
▁짓고	-11.6925
대기	-11.6925
▁이민	-11.6926
▁개가	-11.6929
▁휴일	-11.693
▁kg	-11.6931
▁소개합니다	-11.6931
▁똑같이	-11.6931
▁국부	-11.6932
ON	-11.6935
▁내리고	-11.6935
▁선점	-11.6936
▁구성됩니다	-11.6937
▁도전체	-11.6937
▁특례	-11.6938
▁원고에게	-11.6938
▁조절된	-11.6939
▁0.05	-11.6939
▁폭풍	-11.694
▁재산권	-11.694
▁오락	-11.6942
qu	-11.6943
▁몸통	-11.6943
▁유의성	-11.6945
▁전국적으로	-11.6946
거리는	-11.6947
▁적격	-11.6948
손해보험	-11.6949
모든	-11.6953
▁가치관	-11.6954
▁안무	-11.6955
▁온전	-11.6956
▁조합하여	-11.6957
▁남쪽으로	-11.6957
▁부동	-11.6957
▁증인	-11.6958
▁확인되지	-11.6958
▁가열된	-11.6959
링크	-11.6961
▁주전	-11.6962
▁부르는	-11.6963
▁건조한	-11.6963
▁대미	-11.6964
▁배열된다	-11.6964
▁영화관	-11.6964
▁저해제	-11.6965
▁비리	-11.6967
산리	-11.6971
AE	-11.6972
▁지원해	-11.6973
▁하부에	-11.6974
▁어렵기	-11.6975
▁수지제	-11.6975
▁두피	-11.6976
인증	-11.6976
▁턱	-11.6976
▁존경	-11.6977
▁누구에게	-11.6978
▁자정	-11.6979
▁자연과	-11.698
▁너에게	-11.6981
▁위계	-11.6982
▁문건	-11.6982
▁마을에	-11.6982
라스	-11.6983
▁기록되어	-11.6984
▁산재	-11.6984
▁브리	-11.6984
▁위원이	-11.6984
▁실시했다	-11.6986
▁전극에	-11.6986
▁채택한	-11.6987
▁더블	-11.6989
화되고	-11.6991
▁건전성	-11.6992
▁플랫폼이	-11.6993
11)	-11.6994
53	-11.6994
되었는데	-11.6994
▁분체	-11.6994
▁전무	-11.6995
▁노력하겠다	-11.6996
▁상가	-11.6999
69	-11.6999
▁하나와	-11.7
회복	-11.7002
▁반군	-11.7003
▁경위	-11.7005
▁일치한다	-11.7005
▁섭취량	-11.7006
▁샘	-11.7006
▁대지	-11.7007
지난	-11.7007
(111	-11.7009
▁생기지	-11.7009
▁이거는	-11.701
▁힘들어	-11.7011
▁외주면에	-11.7011
▁젤	-11.7012
▁저수지	-11.7013
됐으나	-11.7013
▁법조	-11.7015
▁위치된	-11.7015
▁보물	-11.7015
▁전동기	-11.7015
▁구형	-11.7016
체육관	-11.7017
▁지적도	-11.7017
▁강경	-11.7018
▁수요일	-11.7018
▁지낸	-11.7019
▁속이	-11.7019
▁활용이	-11.702
▁외측에	-11.7021
▁확인하여	-11.7021
▁약품	-11.7022
▁토대	-11.7023
▁작동할	-11.7025
▁획득부	-11.7029
▁조절이	-11.7032
금강	-11.7032
확	-11.7034
▁괜찮	-11.7034
▁초월	-11.7036
▁근본	-11.7036
▁부문에	-11.7039
아민	-11.7039
72	-11.704
사장	-11.704
▁잔부	-11.7043
▁제거하여	-11.7044
▁일어난다	-11.7045
개씩	-11.7046
▁담당하고	-11.7048
▁본격	-11.7048
▁취득부	-11.7051
▁산출된	-11.7054
▁유의하지	-11.7056
▁영상에서	-11.7057
있게	-11.7058
됐을	-11.706
▁0.4	-11.7061
▁대상인	-11.7062
▁한국으로	-11.7065
▁터지	-11.7067
▁인체에	-11.7067
▁발견됐다	-11.7068
▁교차로	-11.7071
▁이르면	-11.7072
▁블록에	-11.7074
▁배면	-11.7075
▁교환기	-11.7076
▁조건부	-11.7077
▁유전적	-11.7077
▁유입된	-11.7078
(27	-11.7079
수출	-11.7081
▁화자	-11.7081
▁벤	-11.7082
▁해준다	-11.7083
▁거론되	-11.7087
▁선량	-11.7091
▁끝으로	-11.7092
EA	-11.7092
▁차액	-11.7093
▁김기	-11.7093
센터에서	-11.7094
▁검은	-11.7094
▁안구	-11.7095
▁동적으로	-11.7096
▁잡기	-11.7096
▁나뉘어	-11.7097
▁강하다	-11.7098
려주십시오	-11.7099
▁끝이	-11.7104
▁반영하고	-11.7104
▁저장되는	-11.7108
CB	-11.7109
▁전환이	-11.7109
▁잃어버	-11.7109
▁동해	-11.711
▁본원	-11.7111
▁확인이	-11.7111
▁층과	-11.7114
국과	-11.7114
▁안전관리	-11.712
▁청도	-11.712
▁대출이	-11.7121
교육청	-11.7122
▁RO	-11.7124
~8	-11.7124
▁죽어	-11.7124
▁무산	-11.7127
▁47	-11.7127
수소	-11.7127
▁간격이	-11.7128
▁CA	-11.7129
▁하므로	-11.7129
▁외교적	-11.7131
▁가져오는	-11.7131
시켜서	-11.7131
▁김성	-11.7133
해줍니다	-11.7133
▁결정성	-11.7142
▁취업자	-11.7146
▁하우징에	-11.7155
▁당황	-11.7158
▁중성	-11.7158
데이터를	-11.7159
▁단순화	-11.7159
▁색상으로	-11.716
▁해주는	-11.716
▁통증이	-11.7161
주일	-11.7161
▁본선	-11.7161
냈	-11.7162
이었는데	-11.7162
▁홈페이지에서	-11.7167
▁월요일	-11.7167
▁관련되어	-11.7168
▁그레이	-11.7172
댐	-11.7174
승인	-11.7174
▁누구도	-11.7175
▁사업비	-11.7176
디아	-11.7177
광고	-11.7182
▁쏟아	-11.7184
▁발생하였다	-11.7186
(28	-11.7186
해드리겠습니다	-11.7191
ta	-11.7195
▁체납	-11.7195
▁납세	-11.72
▁춘	-11.72
▁알려드리	-11.7205
▁이해하지	-11.7205
▁블록들	-11.7206
젤	-11.7206
옹	-11.7207
떡	-11.7208
잇	-11.7209
▁조사에서	-11.7209
마켓	-11.721
벤처	-11.721
넘	-11.721
클럽	-11.7211
뭐	-11.7211
밸브	-11.7211
포럼	-11.7211
▁연결해	-11.7211
▁탈북	-11.7212
프레임	-11.7214
▁형성하여	-11.7215
함께	-11.7217
기념	-11.7218
▁멋	-11.7219
기관인	-11.7219
▁처음에	-11.7219
▁남편이	-11.7222
▁전계	-11.7223
판정	-11.7225
관과	-11.7226
▁공업	-11.7226
▁이색	-11.7227
MT	-11.7228
스톤	-11.7231
취하고	-11.7234
청구권	-11.724
▁운동이	-11.724
세워	-11.7242
▁작곡	-11.7243
요구	-11.7245
▁결정화	-11.7246
비용이	-11.7248
무대	-11.7249
▁경정	-11.725
▁증가는	-11.7251
▁정책으로	-11.7253
▁오기	-11.7253
▁않으	-11.7254
TD	-11.7257
▁정자	-11.7258
시장에	-11.7261
▁달라지는	-11.7262
교수	-11.7263
사항이	-11.7266
▁실효	-11.7266
판이	-11.7267
▁자원봉사	-11.7267
액으로	-11.7268
▁서기	-11.7268
▁책자	-11.7269
▁IF	-11.727
▁도시에	-11.7272
▁융	-11.7273
▁상관없	-11.7274
▁1,2	-11.7279
광주	-11.728
▁효용	-11.7282
▁규정되어	-11.7285
▁표피	-11.7286
▁열교환	-11.7286
▁거실	-11.7287
▁속한다	-11.7288
보드	-11.7289
▁넓어	-11.729
▁빛이	-11.729
▁선보인	-11.7293
CL	-11.7294
▁생각했다	-11.7295
▁제조한다	-11.7295
ig	-11.7296
특성	-11.7297
▁사람도	-11.7299
총회	-11.73
▁느낀	-11.73
▁돌출되	-11.7303
▁데서	-11.7304
▁불공정	-11.7304
▁신청인	-11.7306
▁구입한	-11.7308
▁지점에서	-11.731
▁역할에	-11.731
특구	-11.7311
▁준비된	-11.7312
▁불거	-11.7312
▁산업은	-11.7318
▁콘텐츠에	-11.7319
▁패널은	-11.7323
▁소자에	-11.7325
▁밝혔	-11.7326
프라	-11.7328
준이	-11.7329
▁효과적	-11.7334
▁원통	-11.7338
생물	-11.7343
▁고주파	-11.7344
▁함유량	-11.7346
▁횡단	-11.7346
▁페이	-11.7346
▁고마워	-11.7349
PGA	-11.735
콤	-11.735
▁고맙	-11.735
둬	-11.7351
셜	-11.7351
궤	-11.7352
▁다국적	-11.7353
▁가깝게	-11.7353
▁그렇습니다	-11.7353
▁끊어	-11.7353
▁냄비	-11.7353
▁놓이	-11.7353
▁늦은	-11.7353
▁덮고	-11.7353
▁두려움	-11.7353
▁뒤늦게	-11.7353
▁딥러닝	-11.7353
▁땜납	-11.7353
▁맞았다	-11.7353
▁불연속	-11.7353
▁뷔페	-11.7353
▁슬래그	-11.7353
▁시그니처	-11.7353
▁식약처	-11.7353
▁이듬해	-11.7353
▁인터랙션	-11.7353
▁인플루언서	-11.7353
▁읽었	-11.7353
▁임진왜란	-11.7353
▁주목받고	-11.7353
▁짧게	-11.7353
▁카자흐스탄	-11.7353
▁캘리퍼	-11.7353
▁텅스텐	-11.7353
▁펼칠	-11.7353
▁프라이버시	-11.7353
▁행정안전부	-11.7353
▁드래그	-11.7353
▁플로팅	-11.7353
▁고구려	-11.7353
▁글쎄	-11.7353
▁다공질	-11.7353
▁마운트	-11.7353
▁비트코인	-11.7353
▁촉각	-11.7353
▁가급적	-11.7353
▁농경지	-11.7353
▁와이퍼	-11.7353
▁리세스	-11.7353
▁상고이유	-11.7353
▁도파관	-11.7353
▁페이로드	-11.7353
▁자부심	-11.7353
▁침묵	-11.7353
▁구속영장	-11.7353
▁조별리그	-11.7353
▁프리즘	-11.7353
▁동남아시아	-11.7353
▁패스워드	-11.7353
▁곤충	-11.7354
▁반려견	-11.7354
▁베젤	-11.7354
▁모노머	-11.7354
▁기록된	-11.7354
▁워크피스	-11.7354
▁가르쳐	-11.7354
ance	-11.7354
▁탄소섬유	-11.7354
▁대중교통	-11.7354
▁구직자	-11.7354
▁재순환	-11.7354
▁저혈당	-11.7355
▁MBC	-11.7355
▁답답	-11.7355
▁드라이	-11.7355
▁생검	-11.7355
▁종괴	-11.7355
▁시드니	-11.7355
▁권익	-11.7355
▁화학물질	-11.7355
▁어휘	-11.7355
▁획기적	-11.7355
(204)	-11.7355
▁인트라	-11.7356
▁수산물	-11.7356
(123)	-11.7356
▁연평균	-11.7356
▁식재료	-11.7356
▁에어백	-11.7356
▁은닉	-11.7357
▁문맥	-11.7357
▁헌신	-11.7357
파운드	-11.7357
▁무증상	-11.7357
▁버너	-11.7357
▁통풍	-11.7357
(141)	-11.7358
▁동작이	-11.7358
▁보시면	-11.7358
▁공헌	-11.7358
▁감안하면	-11.7359
▁요구사항	-11.7359
▁아이디	-11.7359
▁괜찮아요	-11.7359
▁우연히	-11.7359
▁풀링	-11.7359
▁가옥	-11.736
▁착신	-11.736
▁계류	-11.736
▁나타내며	-11.736
▁암세포	-11.736
▁포즈	-11.736
▁유명하다	-11.736
▁생산하고	-11.7361
▁극심	-11.7361
▁자연환경	-11.7361
▁새마을	-11.7362
▁원재료	-11.7362
▁송출	-11.7362
▁온도에	-11.7363
▁싶은데요	-11.7363
▁맞물리	-11.7363
▁형사소송법	-11.7364
▁풍미	-11.7365
▁설정한다	-11.7365
▁역류	-11.7367
▁탄화물	-11.7367
▁연봉	-11.7368
▁추석	-11.7368
▁변속기	-11.7369
▁원하시면	-11.7369
▁결여	-11.7369
▁명목	-11.7369
▁일관되	-11.737
▁거울	-11.7371
▁0%	-11.7371
▁뉴질랜드	-11.7371
▁라이브러리	-11.7371
▁들러	-11.7372
IL	-11.7372
▁종사원	-11.7373
▁마디	-11.7374
▁비슷하다	-11.7375
▁익히	-11.7375
▁소환	-11.7375
▁외모	-11.7376
▁저압	-11.7376
▁보살	-11.7377
▁엄지	-11.7377
▁차광	-11.7378
▁스테이	-11.7378
▁신청자	-11.7378
(53)	-11.738
▁결실	-11.738
▁처치	-11.7381
혁명	-11.7381
▁기념식	-11.7382
▁흐르고	-11.7384
▁위약	-11.7384
년째	-11.7385
웠던	-11.7386
▁고등학생	-11.7386
▁충족하는	-11.7386
고정	-11.7387
▁잊지	-11.7387
▁금호	-11.7388
▁연안	-11.739
▁역내	-11.739
▁같은데요	-11.7392
▁분당	-11.7392
▁싶어서	-11.7394
▁배운	-11.7395
▁오래전	-11.7395
▁거칠기	-11.7397
▁향해서	-11.7397
▁부드럽고	-11.7398
▁내주면	-11.7398
▁복합재	-11.7399
▁파동	-11.7399
▁투과율	-11.7399
▁여성들에게	-11.74
▁카운트	-11.74
▁것이어서	-11.7401
분께	-11.7402
▁억제하고	-11.7403
▁임용	-11.7405
가루	-11.7406
하거든요	-11.7406
▁가해	-11.7406
▁정공	-11.7407
▁경쟁에서	-11.7407
▁만나서	-11.7407
▁TB	-11.7411
▁반송파	-11.7413
▁맞을	-11.7413
▁어렵지	-11.7414
▁공급하고	-11.7415
▁이루어졌	-11.7415
▁김민	-11.7416
▁명동	-11.7417
▁알파	-11.7417
▁베스트	-11.7417
▁유전성	-11.7419
▁요청한	-11.7419
▁보장합니다	-11.7419
▁Ag	-11.7421
▁올해부터	-11.7421
▁요양병원	-11.7422
▁물리학	-11.7422
▁대회에서	-11.7423
▁업체에	-11.7423
▁입구에	-11.7425
▁부근에서	-11.7425
▁갖다	-11.7425
▁요금제	-11.7425
변량	-11.7427
▁편리하고	-11.7429
▁폭포	-11.7431
▁층으로	-11.7432
▁민법상	-11.7432
▁다치	-11.7432
▁나오기	-11.7432
▁보이며	-11.7433
▁두통	-11.7434
▁다가왔	-11.7434
▁적용한다	-11.7436
▁미치는지	-11.7437
▁원금	-11.7438
▁생화학	-11.7439
심에서	-11.744
▁내년부터	-11.7441
▁예들	-11.7441
▁측면과	-11.7442
서류	-11.7444
▁해당되는	-11.7445
▁취소한다	-11.7446
▁유지되고	-11.745
▁정산	-11.7454
▁소자는	-11.7455
FF	-11.7456
▁힘들었	-11.7456
▁완성된	-11.7458
▁공유하고	-11.7459
보수	-11.7459
▁170	-11.7461
▁파라미터들	-11.7461
타자	-11.7461
▁PV	-11.7463
▁스파	-11.7464
▁지우	-11.7465
▁남아있는	-11.7465
▁시연	-11.7467
▁신비	-11.7468
▁통신사	-11.7473
달아	-11.7476
▁기업으로	-11.7477
유리	-11.7477
▁부여하고	-11.7478
▁모르고	-11.7478
▁대치	-11.7479
▁네트워크에서	-11.7481
▁직경이	-11.7481
▁브레	-11.7481
▁이용되고	-11.7481
▁320	-11.7482
▁테이블에	-11.7483
▁김진	-11.7483
▁말하며	-11.7484
십니까	-11.7487
▁시드	-11.7487
▁성형체	-11.7488
▁신뢰가	-11.7489
▁결합되고	-11.7492
▁등장한다	-11.7493
▁발레리	-11.7494
▁모기	-11.7494
▁한복	-11.7495
▁추정하고	-11.7497
▁위대	-11.7497
▁동체	-11.7498
oc	-11.75
▁조직에서	-11.7501
▁남원	-11.7502
▁있는데요	-11.7502
▁제때	-11.7505
버린	-11.7506
▁돌출된	-11.7507
줄게요	-11.7508
▁본고에서	-11.7511
▁비정상적	-11.7511
바다	-11.7513
▁0.6	-11.7515
▁알아보고	-11.7516
전화	-11.7517
▁기와	-11.7518
▁형성하도록	-11.7524
▁많은데	-11.7525
▁간단하고	-11.7527
▁취득한다	-11.7527
▁지역적	-11.7529
▁정보로	-11.753
▁연장되고	-11.7532
리안	-11.7533
▁현지인들	-11.7533
▁상황입니다	-11.7533
▁15%	-11.7535
경화	-11.7535
▁나가기	-11.7536
▁모형에	-11.7536
▁엠	-11.7537
▁패턴과	-11.7537
▁변환부	-11.7538
훈이	-11.7538
▁살펴보는	-11.7538
▁집단으로	-11.7538
부채	-11.754
▁치안	-11.7544
▁랩	-11.7545
▁소문	-11.7545
▁배부	-11.7545
▁가액	-11.7546
그래	-11.7546
▁공급이	-11.7547
서야	-11.7548
압력	-11.7549
▁양형	-11.7552
▁미용	-11.7556
채무	-11.7558
대교	-11.756
▁동북	-11.7561
▁오전에	-11.7562
▁확산으로	-11.7562
▁아베	-11.7563
▁브라	-11.7563
▁학자	-11.7566
▁인가되	-11.7567
이라서	-11.7568
▁잇는	-11.7568
부하	-11.7569
▁만나고	-11.757
▁하였고	-11.757
▁선행연구들	-11.7571
▁일측에	-11.7573
▁흐름이	-11.7575
▁꾸준한	-11.7575
▁교장	-11.7576
▁피고들	-11.7577
▁성남시	-11.7578
▁판정부	-11.7579
▁매물	-11.7581
널	-11.7586
(83	-11.7586
▁판매할	-11.7587
▁났다	-11.7588
▁선보이는	-11.7588
▁존재하고	-11.759
항은	-11.759
(52	-11.7594
ag	-11.7595
BN	-11.7596
▁만족스러	-11.7596
▁도산	-11.7596
▁가능해진	-11.7597
▁보험자	-11.7597
▁디바이스로	-11.7598
▁합의에	-11.76
▁귀가	-11.7605
▁국회에	-11.7606
토지	-11.7607
아동	-11.7608
▁구로구	-11.7609
▁참사	-11.7614
▁장기화	-11.7614
mL	-11.7614
▁안타	-11.7615
▁여쭤	-11.7615
▁비롯된	-11.7616
▁확보가	-11.7618
▁관리하기	-11.7619
등의	-11.762
▁피하	-11.7621
▁주소로	-11.7622
▁기전	-11.7622
▁나무가	-11.7624
▁PT	-11.7626
▁외부로부터	-11.7627
때문에	-11.7632
능력을	-11.7632
▁맞닿	-11.7633
짐에	-11.7633
▁마련되는	-11.7633
▁분석과	-11.7634
▁생성된다	-11.7635
▁길어	-11.7635
▁지정한	-11.7635
▁평가에	-11.7643
▁결혼을	-11.7645
출력	-11.7646
▁GS	-11.7646
▁초기화	-11.7647
▁수입이	-11.7647
▁삽입된	-11.7647
해보면	-11.7648
▁코트	-11.7648
82	-11.7648
형상	-11.7649
▁행성	-11.765
▁원시	-11.7653
이행	-11.7656
▁지닌다	-11.7658
▁일원	-11.7659
▁구하고	-11.7662
em	-11.7664
▁실용적	-11.7664
이었으며	-11.7665
계층	-11.7667
▁일면에	-11.7668
났	-11.7671
▁나타나기	-11.7672
▁거주지	-11.7673
▁정신과	-11.7677
▁차이로	-11.7681
촉진	-11.7681
봉산	-11.7682
▁다하겠다	-11.7686
봐요	-11.7686
▁지급하는	-11.7687
▁개최했다	-11.7689
▁방문했다	-11.769
▁사용자와	-11.7695
끼	-11.7695
펌프	-11.7696
▁대가로	-11.7697
스키	-11.7697
메트	-11.7699
융	-11.7702
▁바이러스에	-11.7706
▁주인이	-11.7707
샘	-11.7707
헬	-11.7707
WC	-11.7709
캠프	-11.7709
▁포용	-11.7709
꼬	-11.7709
아세안	-11.771
미디어	-11.771
인터넷	-11.7711
글로벌	-11.7711
▁연구원	-11.7711
▁추진해	-11.7712
▁접근하는	-11.7712
▁원이	-11.7713
바이오	-11.7713
코딩	-11.7713
▁늦어	-11.7714
관세	-11.7715
▁외환	-11.7716
▁기재부	-11.7716
▁수있다	-11.7717
미술	-11.7717
▁기록하고	-11.7721
▁금고	-11.7721
▁시청자들	-11.7723
종합	-11.7723
▁Me	-11.7725
근무	-11.7725
▁성장하고	-11.7729
▁주문에	-11.7729
▁세트에	-11.773
▁시작하고	-11.7731
▁다가오	-11.7732
▁작년에	-11.7735
▁기지국은	-11.7737
▁세포에	-11.7743
MR	-11.7743
▁발생에	-11.7746
▁고스	-11.7749
플루오로	-11.775
▁플라	-11.7751
변동	-11.7751
피트	-11.7751
▁발견되	-11.7756
▁명문	-11.7756
었으나	-11.7757
▁내기	-11.7759
배우	-11.7761
▁환자들에게	-11.7762
▁라인들	-11.7762
▁전극은	-11.7763
▁의무화	-11.7763
▁경로에	-11.7766
▁96	-11.7766
▁작용에	-11.7767
잡이	-11.7769
근로자	-11.7769
티드	-11.7769
▁이어지	-11.7772
▁찾는다	-11.7774
▁선택이	-11.7776
돌봄	-11.7778
▁설명회	-11.7783
바위	-11.7788
PF	-11.7789
▁기술된	-11.7793
▁도출된	-11.7799
▁아니한다	-11.7802
▁거시	-11.7803
5~	-11.7807
오고	-11.7808
▁유익	-11.7813
▁84	-11.7813
▁v	-11.7818
▁위쪽	-11.7818
di	-11.7819
▁적용해	-11.7821
재정	-11.7821
▁승객들	-11.7824
ens	-11.7825
졌지만	-11.7829
▁착수	-11.783
였으며	-11.7832
▁결정되는	-11.7834
▁성향이	-11.7836
▁떨어뜨	-11.784
▁음이온	-11.7844
▁놀랐	-11.7845
▁일정에	-11.7846
▁해운대	-11.7847
뚝	-11.785
▁박탈	-11.785
사리	-11.7851
▁충격이	-11.7851
▁2.0	-11.7851
멜	-11.7852
축구연맹	-11.7853
램	-11.7853
헨	-11.7853
▁씁니	-11.7853
▁갯벌	-11.7853
▁되찾	-11.7853
▁쐐기	-11.7853
▁압수수색	-11.7853
▁고용노동부	-11.7853
▁골짜기	-11.7853
▁낫다	-11.7853
▁다이어프램	-11.7853
▁떠난	-11.7853
▁미성년자	-11.7853
▁비틀림	-11.7853
▁소멸시효	-11.7853
▁엔티티	-11.7853
▁우레탄	-11.7853
▁유람선	-11.7853
▁전라남도	-11.7853
▁좋네요	-11.7853
▁촉촉	-11.7853
▁팬데믹	-11.7853
▁펩티드	-11.7853
▁프론트	-11.7853
▁플런저	-11.7853
▁현탁액	-11.7853
▁혐오	-11.7853
딴	-11.7853
▁마운드	-11.7853
▁수돗물	-11.7853
▁스토퍼	-11.7853
▁학교폭력	-11.7853
▁사립유치원	-11.7853
▁네비게이션	-11.7853
▁신한은행	-11.7853
▁깨닫	-11.7853
▁거리두기	-11.7853
▁나일론	-11.7853
▁케이팝	-11.7853
▁아쉬움	-11.7853
▁베를린	-11.7853
▁축구대표팀	-11.7853
▁메탄올	-11.7854
▁대퇴골	-11.7854
▁버킷	-11.7854
늄	-11.7854
▁가교결합	-11.7854
▁비밀번호	-11.7854
▁렌치	-11.7854
▁내열성	-11.7854
▁올바르	-11.7854
▁식습관	-11.7854
▁림프절	-11.7854
▁마땅	-11.7854
▁절실	-11.7854
▁침윤	-11.7854
(1200)	-11.7854
▁삽통	-11.7854
(2000)	-11.7854
▁도시재생	-11.7854
▁모르겠다	-11.7854
▁취출	-11.7854
▁존슨	-11.7854
▁비과세	-11.7855
▁않았으나	-11.7855
▁스케줄링	-11.7855
▁림프종	-11.7855
▁침범	-11.7855
▁겨우	-11.7855
▁언더	-11.7855
▁폴리올	-11.7855
▁좋으	-11.7856
▁조선시대	-11.7856
▁마늘	-11.7856
▁니즈	-11.7856
▁뉴런	-11.7856
▁강렬	-11.7856
▁자기자본	-11.7856
▁혼입	-11.7857
▁공룡	-11.7857
▁있겠지만	-11.7857
(211)	-11.7857
▁국채	-11.7857
▁갚	-11.7857
▁동아리	-11.7857
▁반납	-11.7858
▁창립	-11.7858
(212)	-11.7858
▁급락	-11.7858
▁대용량	-11.7858
▁성범죄	-11.7858
▁안전사고	-11.7859
▁CJ	-11.7859
▁타협	-11.7859
▁소식통	-11.7859
커넥	-11.7859
▁받으며	-11.786
▁쿠키	-11.786
8,000	-11.786
▁뿌	-11.7861
▁재벌	-11.7861
▁언급된	-11.7861
▁폐암	-11.7861
▁않았어요	-11.7861
▁잔디	-11.7861
▁흘리	-11.7861
▁남아공	-11.7862
저장	-11.7862
▁가습	-11.7862
▁쉴	-11.7863
▁병역	-11.7863
▁피팅	-11.7863
Pop	-11.7863
1,2	-11.7863
▁남극	-11.7864
▁단가	-11.7864
▁대통령령	-11.7866
▁EV	-11.7866
▁공간과	-11.7866
▁받았지만	-11.7866
▁95%	-11.7867
▁1930	-11.7867
▁예매	-11.7868
▁부극	-11.7869
GI	-11.7869
▁만두	-11.7869
▁향유	-11.787
▁근위	-11.7871
▁비트들	-11.7871
(126)	-11.7871
투자증권	-11.7871
회초	-11.7872
▁구성한	-11.7872
▁많아요	-11.7872
▁악재	-11.7875
▁본교에서	-11.7875
▁제어신호	-11.7878
▁기술개발	-11.7878
▁이자율	-11.7879
시쯤	-11.7879
▁세목	-11.7879
▁상세히	-11.7879
▁(4)	-11.788
▁상온	-11.788
▁변신	-11.788
▁차양	-11.788
▁10,000	-11.7881
▁동축	-11.7881
▁파단	-11.7882
▁효능감	-11.7882
▁감당	-11.7883
▁불가피하다	-11.7883
항제	-11.7884
로드	-11.7884
▁꺼리	-11.7886
▁폭우	-11.7886
▁갤러리	-11.7887
▁꿀	-11.7887
▁섬유증	-11.7887
▁인쇄된	-11.7888
▁뭐라고	-11.7888
▁현대차	-11.7889
▁긴장감	-11.789
큐브	-11.789
▁추상적	-11.789
보장	-11.789
▁첫번째	-11.7892
▁접어들	-11.7892
▁상금	-11.7892
▁대한항공	-11.7893
▁액수	-11.7893
해주실	-11.7894
▁돕고	-11.7894
▁모금	-11.7895
하였는지	-11.7897
▁열리고	-11.7898
▁고액	-11.79
▁확보하는	-11.7902
▁―	-11.7902
▁예산안	-11.7904
더라	-11.7904
▁맞추고	-11.7906
▁당사국	-11.7906
▁수집한	-11.7908
▁보간	-11.7908
▁우리은행	-11.7908
▁평가와	-11.7908
▁설득력	-11.7909
▁전격	-11.7909
▁양파	-11.791
▁KOICA	-11.791
▁연다	-11.791
▁브리지	-11.7911
▁소관	-11.7912
▁할까요	-11.7913
▁규정함	-11.7913
▁농구	-11.7913
▁떨어지고	-11.7914
▁통관	-11.7914
GE	-11.7914
▁연체	-11.7914
▁삽	-11.7916
▁사연	-11.7916
▁돌출되어	-11.7917
▁방북	-11.7917
▁정하고	-11.7917
▁헬스케어	-11.7917
▁명확하지	-11.7921
▁일어나지	-11.7921
주시겠어요	-11.7921
▁보트	-11.7921
▁전도도	-11.7922
▁미미	-11.7922
▁주연	-11.7923
▁재건	-11.7923
▁제반	-11.7924
▁스토어	-11.7925
▁수색	-11.7926
▁부신	-11.7927
▁사드	-11.7928
▁둘러	-11.7928
▁설정되어	-11.7929
▁74	-11.7929
음으로써	-11.7929
▁성과와	-11.7929
▁됐어요	-11.7931
▁노동력	-11.7931
▁지리적으로	-11.7934
▁월별	-11.7935
▁축방향으로	-11.7935
▁연어	-11.7936
▁지역과	-11.7936
▁지지하고	-11.7936
▁교차하	-11.7936
▁잔액	-11.7937
▁공감대	-11.7938
반소	-11.7939
곡리	-11.7939
▁도착한	-11.794
▁프로야구	-11.7941
▁질감	-11.7941
▁독립적	-11.7941
▁1500	-11.7943
▁다양하고	-11.7944
▁익명	-11.7944
시나요	-11.7944
▁분류하여	-11.7945
▁전환할	-11.7946
▁실물	-11.7946
▁별개로	-11.7947
▁전화로	-11.7948
▁전달하고	-11.7949
▁프로그램으로	-11.7951
▁배송비	-11.7951
▁후생	-11.7959
▁소속사	-11.796
▁분산액	-11.7961
▁막히	-11.7962
▁평일	-11.7962
▁상세하게는	-11.7964
▁단정	-11.7964
▁비유	-11.7964
ame	-11.7966
▁전달된다	-11.7966
월말	-11.7967
▁가능하다면	-11.7969
▁인식된	-11.797
▁라인에	-11.7973
▁배워	-11.7974
▁수거	-11.7974
▁답장	-11.7974
▁시설물	-11.7975
ction	-11.7975
▁그룹이	-11.7976
통일	-11.7978
질서	-11.7979
▁내외	-11.7979
운전	-11.7982
▁직장인	-11.7983
▁판매합니다	-11.7983
▁업소	-11.7983
▁돼서	-11.7987
▁위치들	-11.7994
▁어울리는	-11.7999
회관	-11.8001
▁다가오는	-11.8002
▁참고로	-11.8003
▁국한되	-11.8003
▁옹	-11.8008
▁원칙이	-11.8009
▁현실에서	-11.8011
▁NO	-11.8014
▁학과	-11.8014
▁웹사이트에	-11.8015
▁900	-11.8016
▁대상에서	-11.8018
▁수혜자	-11.8018
▁난방기	-11.8021
▁아내와	-11.8022
▁항목으로	-11.8023
▁포일	-11.8023
▁때문일	-11.8024
▁딸기	-11.8024
▁나비	-11.8025
▁시책	-11.8026
스틴	-11.8027
▁회원국들	-11.8028
옥시	-11.8028
▁해리	-11.8029
▁크로	-11.8029
▁우물	-11.8029
▁따르고	-11.803
▁주셨	-11.8031
▁컴	-11.8032
▁국회에서	-11.8032
▁사무실에	-11.8032
란히	-11.8035
▁주변에서	-11.8037
▁세관	-11.8042
▁발견되지	-11.8044
▁and	-11.8044
▁작업에	-11.8046
▁법이	-11.8047
RAM	-11.8049
공기	-11.805
▁경험한	-11.805
▁극성	-11.8051
▁요금이	-11.8052
▁흐르	-11.8057
▁안다	-11.806
ER	-11.8062
▁지난주에	-11.8063
▁도장	-11.8064
▁장애가	-11.8066
▁등장한	-11.8069
▁개발자	-11.807
▁급전	-11.8075
▁접근법	-11.8076
노인	-11.808
▁전산	-11.8082
▁기술자	-11.8083
▁두께는	-11.8087
▁주장한	-11.8088
▁맞고	-11.8089
▁아산	-11.8091
▁AS	-11.8092
▁후드	-11.8092
(112	-11.8093
▁확대될	-11.8094
계산	-11.8099
▁어머니는	-11.8099
대전	-11.8099
▁사회가	-11.8101
▁사용되어	-11.8102
▁내게	-11.8103
83	-11.8103
▁법률이	-11.8104
주파수	-11.8106
▁사용해야	-11.8108
▁소감	-11.8109
▁안산	-11.8111
▁문법	-11.8115
▁처리한	-11.8119
▁몬	-11.8121
▁보고서에서	-11.8125
▁웨이	-11.8128
▁선택한다	-11.8129
▁수혜	-11.8129
병리학적	-11.8131
▁듭니	-11.8132
▁230	-11.8132
(47	-11.8133
▁시티	-11.8137
▁유닛이	-11.8137
컷	-11.8139
▁개시는	-11.8139
▁진흥	-11.8143
Cr	-11.8144
▁시상	-11.8144
▁필터는	-11.8148
▁주체로	-11.8151
▁사장이	-11.8151
▁Ca	-11.8157
▁김영	-11.8161
(1,	-11.8163
▁확대된	-11.8164
▁혹	-11.8166
고루	-11.8166
▁기관에	-11.8168
▁찍고	-11.8171
주지	-11.8171
▁기판과	-11.8179
▁제조된다	-11.8181
▁판매량	-11.8183
▁가격과	-11.8186
▁분들은	-11.8194
▁104	-11.8195
SL	-11.8201
▁좋다고	-11.8202
▁요건으로	-11.8205
▁아니기	-11.8205
▁유럽에서	-11.8206
▁멀어	-11.8208
▁차단기	-11.8208
켜	-11.8209
SV	-11.8211
▁이상이고	-11.8213
▁상단에	-11.8214
▁생성한	-11.8215
구동	-11.8216
▁음악적	-11.8216
짜	-11.8218
▁자식	-11.8218
▁라운드	-11.8218
생명	-11.8219
▁내어	-11.8221
▁파악하여	-11.8222
▁합병증이	-11.8224
▁인가된	-11.8225
▁존재하는지	-11.8226
▁가능하	-11.8228
▁화합물과	-11.8229
▁제안하는	-11.823
돔	-11.823
▁주민이	-11.8231
세기에	-11.8233
샷	-11.8234
▁HD	-11.8235
▁발명에서는	-11.8235
ppm	-11.8235
겔	-11.8236
리조트	-11.8236
박람회	-11.8236
고등학교	-11.8236
융합	-11.8237
「	-11.8237
네트워크	-11.8237
최근	-11.8239
▁내전	-11.8241
카페	-11.8241
현황	-11.8243
부동산	-11.8243
▁94	-11.8246
생태	-11.8247
he	-11.8247
CDC	-11.8247
테러	-11.8248
메타	-11.8248
▁삼고	-11.8249
교환	-11.8251
▁수상했다	-11.8252
경북	-11.8254
▁손이	-11.8256
지라도	-11.8256
건축	-11.8257
표준	-11.8257
설정	-11.8261
케어	-11.8263
▁미국인	-11.8264
▁않고도	-11.8266
줬다	-11.8267
▁UN	-11.8268
▁장이	-11.827
▁저녁에	-11.827
▁가지지	-11.8271
▁고양시	-11.8271
▁위험성이	-11.8278
셈	-11.8286
▁피지	-11.8288
엔진	-11.8294
▁ML	-11.8296
▁개별적	-11.8297
▁은행에	-11.83
▁수업에서	-11.8301
▁인식에	-11.8305
▁때문인	-11.8306
+1	-11.8308
기념관	-11.831
▁배치한	-11.831
▁옮기는	-11.831
▁예측이	-11.8311
▁형태는	-11.8313
▁안고	-11.8324
▁하수	-11.8324
▁설정부	-11.8329
여건	-11.8329
화폐	-11.8331
▁소수의	-11.8333
▁조치에	-11.8334
▁다해	-11.8336
▁실시예에서는	-11.8336
략	-11.8336
▁가능한지	-11.8337
▁5000	-11.8339
▁예약할	-11.834
▁언론들	-11.8342
남부	-11.8344
▁잡는	-11.8344
▁사진이	-11.8344
▁앞장서	-11.8346
▁그룹으로	-11.8346
▁질환으로	-11.8347
▁제소	-11.8347
경기도	-11.8351
▁가입한	-11.8352
▁장비에	-11.8352
악기	-11.8352
▁파일에	-11.8353
~2	-11.8354
▁상임	-11.8355
▁측정하고	-11.8355
▁Re	-11.8356
▁마셔	-11.8356
▁겪었	-11.8356
▁찾아보	-11.8356
▁돌아온	-11.8361
▁사례로	-11.8363
▁정치인	-11.8364
▁드러	-11.8365
▁스테	-11.8366
역에서	-11.8367
뢰	-11.8369
CV	-11.8369
35)	-11.8369
▁바쁘	-11.8372
▁연령이	-11.8373
▁문턱	-11.8375
담당자	-11.8375
▁불꽃	-11.8375
릉	-11.8376
▁존속	-11.8377
켈	-11.8377
즐	-11.8378
숫	-11.8379
▁전립선	-11.8379
렁	-11.8379
댁	-11.8379
▁떠올랐	-11.838
▁유기발광	-11.838
▁경상북도	-11.838
▁골다공증	-11.838
▁그렇죠	-11.838
▁네트워킹	-11.838
▁많기	-11.838
▁모았다	-11.838
▁묶어	-11.838
▁문화체육관광부	-11.838
▁미흡한	-11.838
▁붕소	-11.838
▁브래킷	-11.838
▁슬레이브	-11.838
▁시냅스	-11.838
▁여자친구	-11.838
▁이렇듯	-11.838
▁인덕터	-11.838
▁임펠러	-11.838
▁임플란트	-11.838
▁캐시	-11.838
▁커패시턴스	-11.838
돋	-11.838
똥	-11.838
옴	-11.838
폼페이오	-11.838
▁김문수	-11.838
▁비정질	-11.838
▁차라리	-11.838
▁인명피해	-11.838
▁스코어	-11.838
(460)	-11.838
▁카카오톡	-11.838
▁음주운전	-11.838
▁여섯	-11.838
▁GUI	-11.838
▁돼지고기	-11.838
▁가전제품	-11.838
▁글쓰기	-11.838
▁사립학교	-11.838
▁순조롭	-11.838
▁상쾌	-11.838
▁낭만	-11.838
▁크리스	-11.838
▁자칫	-11.838
▁힐링	-11.838
▁정신건강	-11.838
▁거짓말	-11.838
▁재킷	-11.8381
▁푸른	-11.8381
▁아랍	-11.8381
▁만성질환	-11.8381
▁맵핑	-11.8381
▁돌입	-11.8381
▁외륜	-11.8381
▁환경오염	-11.8381
▁승격	-11.8381
▁윤활유	-11.8381
▁북핵	-11.8382
▁탐방	-11.8382
▁펼쳐져	-11.8382
▁뷰티	-11.8382
▁공산당	-11.8382
▁영광	-11.8382
▁수취인	-11.8382
▁영혼	-11.8382
▁산림청	-11.8382
▁있느냐	-11.8383
▁결손	-11.8383
▁친숙	-11.8383
민주	-11.8383
▁Zn	-11.8383
▁아미노산	-11.8383
▁간경화	-11.8383
▁멈	-11.8383
▁열분해	-11.8383
공간을	-11.8384
▁지고	-11.8384
▁협소	-11.8384
▁없으나	-11.8384
▁국세청	-11.8384
▁말씀하신	-11.8384
▁받으실	-11.8384
▁견디	-11.8384
유플러스	-11.8384
▁끝날	-11.8384
▁파스타	-11.8384
▁알맞	-11.8385
▁미술품	-11.8385
▁OK	-11.8385
(142)	-11.8385
▁벽돌	-11.8385
▁파주	-11.8385
▁에이스	-11.8385
▁파급효과	-11.8385
▁근방	-11.8386
시키려	-11.8386
▁받았으며	-11.8386
▁벌크	-11.8387
▁패배	-11.8387
▁연례	-11.8387
▁마침	-11.8388
웨어	-11.8388
▁카본	-11.8389
전용	-11.8389
▁저소득	-11.8389
▁취재진	-11.839
▁편리하다	-11.839
▁서쪽에	-11.8391
▁우즈	-11.8391
▁양보	-11.8391
토리	-11.8391
▁쌓아	-11.8391
▁다이아몬드	-11.8392
▁알려주실	-11.8392
▁억지	-11.8392
▁배후	-11.8393
▁도자기	-11.8393
▁데이트	-11.8393
▁학부모님께서	-11.8394
▁축열	-11.8394
▁고쳐	-11.8394
안보	-11.8394
▁감사해요	-11.8395
▁표창	-11.8395
▁적었다	-11.8396
▁다양하다	-11.8397
▁채우	-11.8397
▁동일하거나	-11.8398
▁실감	-11.8399
▁저한테	-11.8399
▁변론	-11.8399
▁신기술	-11.8399
▁딥	-11.84
▁잉글랜드	-11.84
▁서대문구	-11.84
▁여타	-11.84
▁집광	-11.84
(133)	-11.8401
▁유출구	-11.8401
▁정극	-11.8401
▁영하	-11.8402
▁비누	-11.8402
▁넘어선	-11.8403
▁240	-11.8405
▁반려	-11.8405
▁가짐	-11.8406
FS	-11.8406
는데도	-11.8406
▁시신	-11.8406
▁220	-11.8407
▁카보네이트	-11.8407
(113)	-11.8408
▁높아졌다	-11.8409
▁숙주	-11.8409
돌기	-11.8412
▁광범위하게	-11.8412
▁듣	-11.8413
▁잠시만	-11.8415
▁유방	-11.8415
▁드물다	-11.8416
▁받았던	-11.8416
TO	-11.8417
▁떨어졌	-11.8417
▁확대할	-11.8417
▁알려지지	-11.8418
▁세심	-11.8418
▁청결	-11.8419
▁연결이	-11.842
혔다	-11.8421
▁모회사	-11.8421
▁등장하는	-11.8422
▁Mo	-11.8423
▁이끈	-11.8423
▁모유	-11.8424
▁더구나	-11.8424
▁크레인	-11.8424
▁경영권	-11.8425
▁상업적	-11.8425
▁액화	-11.8426
▁디바이스와	-11.8427
▁확	-11.8428
▁전승	-11.843
▁법률관계	-11.8431
▁아침입니다	-11.8431
▁입법자	-11.8431
▁꿈이	-11.8432
클리	-11.8433
▁SIR	-11.8433
▁아치형	-11.8434
▁단면적	-11.8434
▁노출되어	-11.8434
▁침지	-11.8436
▁조정된	-11.8437
▁입자들	-11.8437
▁식에서	-11.8438
▁있음에도	-11.8438
▁DR	-11.8439
▁성관계	-11.8439
▁구분된다	-11.8441
마비	-11.8441
▁절개	-11.8442
▁주자	-11.8444
▁집진	-11.8445
▁당뇨병성	-11.8446
▁저하시키	-11.8446
▁SN	-11.8446
▁연내	-11.8447
▁안티	-11.8448
▁연계해	-11.8448
▁종합하여	-11.8448
▁대두되	-11.845
▁경사진	-11.8451
▁택지	-11.8451
▁신기	-11.8452
▁붐	-11.8452
▁줄어들고	-11.8453
▁자질	-11.8455
▁상상력	-11.8456
▁논의하는	-11.8457
고객	-11.8459
▁도출하는	-11.8459
▁알리고	-11.846
▁여론이	-11.846
▁사내	-11.846
▁유예	-11.8462
▁암석	-11.8462
▁유리하다	-11.8462
▁평화를	-11.8463
▁공화국	-11.8463
▁국물	-11.8465
▁시설로	-11.8466
합성	-11.8468
▁헬	-11.8469
▁골드	-11.8469
▁추위	-11.847
▁해결해야	-11.847
▁아이들에게	-11.8471
▁찾아야	-11.8472
▁단말에	-11.8472
▁도시화	-11.8474
▁반해	-11.8476
▁분진	-11.8479
▁부산에서	-11.8481
▁도발	-11.8481
했으면	-11.8481
▁대신하여	-11.8483
▁지역별로	-11.8483
▁대화가	-11.8484
스럽게	-11.8485
▁권고했다	-11.8486
▁지금부터	-11.8487
▁한편으로	-11.8487
▁트레	-11.8488
▁기초해	-11.8489
▁검증하기	-11.849
유체	-11.8491
광역시	-11.8493
▁주식시장	-11.8494
▁비단	-11.8496
▁구현하는	-11.8497
산소	-11.8499
▁말아	-11.8502
▁행한다	-11.8503
▁바꾸고	-11.8503
▁등판	-11.8505
▁세입자	-11.8506
▁문화에	-11.8506
▁자진	-11.8507
▁일체화	-11.8508
레이드	-11.8509
▁인천시	-11.8512
▁빈혈	-11.8514
▁팔리	-11.8515
▁활용된다	-11.8516
▁취약성	-11.8517
▁지키는	-11.8517
▁팝	-11.8518
▁각호	-11.8519
▁모재	-11.8519
▁업무상	-11.8519
▁화합물이	-11.852
▁프로젝트에	-11.8522
▁인증서	-11.8522
▁오른쪽으로	-11.8522
▁주어지	-11.8523
▁향수	-11.8524
▁노인들	-11.8524
다니	-11.8524
▁말라고	-11.8525
프레	-11.8525
▁영국에서	-11.8526
▁도중에	-11.8527
▁접속된다	-11.8531
▁하실	-11.8533
▁시스템으로서	-11.8534
▁수준까지	-11.8535
▁조개	-11.8536
▁한편으로는	-11.8537
▁차별적	-11.8539
▁매도인	-11.854
▁효과로	-11.8542
실점	-11.8542
▁요소와	-11.8543
▁속해	-11.8543
▁실제로는	-11.8544
▁화합물로	-11.8544
end	-11.8546
FO	-11.8546
▁예정이	-11.8547
▁통기	-11.8549
▁각하	-11.855
관절	-11.8551
▁면역력	-11.8551
▁대차	-11.8552
SW	-11.8553
▁한시적	-11.8554
▁예보	-11.8555
▁괜찮으	-11.8557
▁보고서에	-11.8559
▁답변이	-11.8559
▁구분하고	-11.8559
▁제보	-11.8561
▁다양화	-11.8564
Fi	-11.8565
▁서울대	-11.8566
▁경찰과	-11.8569
▁산업용	-11.8569
▁이론이	-11.8569
▁검출한다	-11.8573
▁살아있	-11.8573
▁생성하여	-11.8574
▁실행하기	-11.8575
▁소스를	-11.8575
▁복잡하	-11.8578
시장이	-11.8579
분산	-11.8579
▁유리하게	-11.8579
▁차선	-11.858
▁내신	-11.858
심과	-11.8583
▁로프	-11.8584
▁단계별	-11.8587
▁예상한다	-11.8588
조약	-11.8593
▁연관성이	-11.8593
MB	-11.8597
▁부가가치세	-11.8598
▁표시하고	-11.8599
▁105	-11.86
▁언론인	-11.86
▁외면에	-11.8603
ow	-11.8607
(120	-11.8608
▁미적	-11.8609
▁국제적으로	-11.8609
32)	-11.8609
▁미비	-11.8609
▁불상	-11.8611
▁그녀에게	-11.8613
▁송신하고	-11.8613
▁유수	-11.8616
▁인간은	-11.8616
▁업적	-11.8619
부지사	-11.8621
▁걸린다	-11.8623
▁III	-11.8623
▁상징적	-11.8624
▁사태로	-11.8625
▁염화	-11.8626
▁짓는	-11.8629
명씩	-11.863
▁서민	-11.8631
▁장단	-11.8635
▁건물이	-11.8643
주시고	-11.8643
▁증명서	-11.8645
▁청년들	-11.8646
▁마비	-11.8648
▁발광부	-11.8648
):	-11.8652
▁판결이	-11.8652
▁확보해	-11.8656
▁상용	-11.8658
▁편이	-11.8662
▁도달한	-11.8663
▁증가세	-11.8663
르트	-11.8664
▁유발한다	-11.8664
▁사망에	-11.8668
▁적시	-11.8669
▁입법적	-11.8673
▁드려	-11.8678
▁킬	-11.8679
▁구원	-11.8688
▁변색	-11.8689
▁그러다	-11.8691
▁독일에서	-11.8694
▁달했다	-11.8695
▁노리	-11.8698
사람	-11.8699
▁주시는	-11.87
▁애도	-11.8703
경제적	-11.8707
▁복지부	-11.8709
▁LC	-11.871
되더라도	-11.8712
▁일선	-11.8713
심의위원회	-11.8714
63	-11.8714
임대	-11.8715
집이	-11.8718
▁교환할	-11.872
▁신부	-11.8724
▁레스토랑에서	-11.8725
▁압수	-11.8726
▁합니까	-11.8728
▁측정값	-11.873
▁반영한다	-11.8733
씨에게	-11.8734
▁적합성	-11.8735
▁되었을	-11.8735
no	-11.8738
▁연구자가	-11.8739
▁분지	-11.8739
▁공여	-11.8739
회의에서	-11.8742
▁남지	-11.8744
▁공법	-11.8744
▁접착성	-11.8745
▁분리기	-11.8745
도구	-11.8747
▁해법	-11.8748
▁회로와	-11.8748
▁일실시예에	-11.8748
▁한파	-11.8749
▁정량적	-11.8751
▁미터	-11.8754
▁모드는	-11.876
GM	-11.8762
▁보장할	-11.8763
▁화상에	-11.8764
▁트랜지스터들	-11.8764
치료를	-11.8766
▁면과	-11.8767
인들에게	-11.8773
▁선택적	-11.8773
▁SD	-11.8775
▁분야별	-11.8775
▁정치적으로	-11.8776
넥	-11.878
더스	-11.8781
▁추출한	-11.8781
▁현상으로	-11.8782
▁섬세	-11.8786
쭉	-11.8789
팝	-11.8789
뷰	-11.879
뱅크	-11.879
녹	-11.8791
폐기물	-11.8791
나트륨	-11.8791
쓸	-11.8792
특례	-11.8792
RNA	-11.8792
수수료	-11.8792
▁진행되어	-11.8792
띠	-11.8792
카메라	-11.8793
▁이용자들	-11.8793
열차	-11.8793
트랙	-11.8794
▁극복하고	-11.8794
겨울	-11.8794
비와	-11.8795
독립	-11.8795
▁기간과	-11.8798
▁시도해	-11.8798
그래서	-11.8802
▁CI	-11.8804
화상	-11.8805
▁파도	-11.8805
▁김경	-11.8806
필드	-11.8808
혈관	-11.8808
▁날씨에	-11.881
▁성공할	-11.8813
▁되어서	-11.8814
패드	-11.8815
루프	-11.8818
유통	-11.882
임금	-11.8824
▁원고들의	-11.8825
편으로	-11.8826
▁오로	-11.8826
▁좋아할	-11.8826
▁단어들	-11.8826
공공	-11.883
▁사건으로	-11.883
▁접어	-11.8831
예정	-11.8833
NA	-11.8833
하기보다는	-11.8833
▁z	-11.8833
사법	-11.8836
▁방출되	-11.8838
스럽다	-11.8839
▁밝혀지	-11.8841
TB	-11.8846
한국시간	-11.8848
구조를	-11.8855
보유	-11.8855
객들	-11.886
▁위치하여	-11.8863
▁압도	-11.8863
▁제조방법에	-11.8863
▁결함이	-11.8867
▁높아진	-11.8872
BR	-11.8873
정리	-11.8874
▁맞물	-11.8875
▁손님들	-11.8878
이런	-11.888
▁가졌	-11.8883
봇	-11.8886
▁피스	-11.8886
▁제공했다	-11.8886
▁나빠	-11.8888
▁항암	-11.8892
위안	-11.8894
∼5	-11.8896
▁곤	-11.8896
▁뻗	-11.8897
▁부상자	-11.89
▁공개하고	-11.8901
▁김지	-11.8901
▁기대하는	-11.8902
▁적도	-11.8903
▁변동에	-11.8905
▁보기에	-11.8907
▁접속부	-11.8909
▁구청	-11.891
▁공급된	-11.8911
▁치러	-11.8912
으므로	-11.8912
▁of	-11.8912
▁기업체	-11.8913
▁열원	-11.8913
▁외적	-11.8913
▁탕	-11.8913
코프	-11.8914
▁남성과	-11.8916
균형	-11.8917
tic	-11.8918
▁윤활	-11.8919
▁로봇은	-11.8923
였는데	-11.8924
▁세계로	-11.8926
▁뽑아	-11.8927
▁제작하는	-11.8928
▁주스	-11.8929
▁전해지	-11.893
▁기뻐	-11.8931
▁자리한	-11.8932
(122	-11.8933
▁오렌지	-11.8934
▁실제적	-11.8934
▁추첨	-11.8934
엉	-11.8935
찜	-11.8935
▁같고	-11.8935
▁거버넌스	-11.8935
▁도펀트	-11.8935
▁라우터	-11.8935
▁리프레시	-11.8935
▁마이너스	-11.8935
▁머리카락	-11.8935
▁메타크릴레이트	-11.8935
▁멸종	-11.8935
▁썼다	-11.8935
▁얻지	-11.8935
▁엑소	-11.8935
▁왼손	-11.8935
▁움직여	-11.8935
▁이끌고	-11.8935
▁이뤘다	-11.8935
▁출퇴근	-11.8935
▁카테터	-11.8935
▁콘덴서	-11.8935
▁파란색	-11.8935
▁핵실험	-11.8935
렐	-11.8935
▁놓아	-11.8935
▁대내외	-11.8935
▁어긋남	-11.8935
▁익숙한	-11.8935
▁레지스트	-11.8935
▁비주얼	-11.8935
▁CKD	-11.8935
▁비공식	-11.8935
▁겨냥	-11.8935
▁대법관	-11.8935
▁매크로	-11.8935
▁놀랍	-11.8935
▁호이스트	-11.8935
▁엣지	-11.8935
▁내세우	-11.8935
▁믹서	-11.8935
▁모르타르	-11.8935
▁셋째	-11.8935
▁컨택	-11.8935
▁사업연도	-11.8935
(260)	-11.8936
▁피벗	-11.8936
▁있으니까	-11.8936
▁내연기관	-11.8936
▁서랍	-11.8936
▁빛나는	-11.8936
▁재정지출	-11.8936
▁동서	-11.8936
▁응용프로그램	-11.8936
▁엑스포	-11.8936
▁뿌려	-11.8936
(90)	-11.8936
[...]
